
#ifdef __has_attribute
#define HAVE_ATTRIBUTE(x) __has_attribute(x)
#else
#define HAVE_ATTRIBUTE(x) 0
#endif
#if HAVE_ATTRIBUTE(aligned) || (defined(__GNUC__) && !defined(__clang__))
#define DATA_ALIGN_ATTRIBUTE __attribute__((aligned(4)))
#else
#define DATA_ALIGN_ATTRIBUTE
#endif

const unsigned char ecg_model[] DATA_ALIGN_ATTRIBUTE = {0x1c, 0x00, 0x00, 0x00, 0x54, 0x46, 0x4c, 0x33, 0x14, 0x00, 0x20, 0x00, 0x1c, 0x00, 0x18, 0x00, 0x14, 0x00, 0x10, 0x00, 0x0c, 0x00, 0x00, 0x00, 0x08, 0x00, 0x04, 0x00, 0x14, 0x00, 0x00, 0x00, 0x1c, 0x00, 0x00, 0x00, 0x88, 0x00, 0x00, 0x00, 0xe0, 0x00, 0x00, 0x00, 0xa8, 0x31, 0x00, 0x00, 0xb8, 0x31, 0x00, 0x00, 0xe4, 0x38, 0x00, 0x00, 0x03, 0x00, 0x00, 0x00, 0x01, 0x00, 0x00, 0x00, 0x04, 0x00, 0x00, 0x00, 0x06, 0xce, 0xff, 0xff, 0x0c, 0x00, 0x00, 0x00, 0x1c, 0x00, 0x00, 0x00, 0x38, 0x00, 0x00, 0x00, 0x0f, 0x00, 0x00, 0x00, 0x73, 0x65, 0x72, 0x76, 0x69, 0x6e, 0x67, 0x5f, 0x64, 0x65, 0x66, 0x61, 0x75, 0x6c, 0x74, 0x00, 0x01, 0x00, 0x00, 0x00, 0x04, 0x00, 0x00, 0x00, 0x94, 0xff, 0xff, 0xff, 0x0d, 0x00, 0x00, 0x00, 0x04, 0x00, 0x00, 0x00, 0x07, 0x00, 0x00, 0x00, 0x64, 0x65, 0x6e, 0x73, 0x65, 0x5f, 0x37, 0x00, 0x01, 0x00, 0x00, 0x00, 0x04, 0x00, 0x00, 0x00, 0xda, 0xce, 0xff, 0xff, 0x04, 0x00, 0x00, 0x00, 0x0d, 0x00, 0x00, 0x00, 0x64, 0x65, 0x6e, 0x73, 0x65, 0x5f, 0x34, 0x5f, 0x69, 0x6e, 0x70, 0x75, 0x74, 0x00, 0x00, 0x00, 0x02, 0x00, 0x00, 0x00, 0x34, 0x00, 0x00, 0x00, 0x04, 0x00, 0x00, 0x00, 0xdc, 0xff, 0xff, 0xff, 0x10, 0x00, 0x00, 0x00, 0x04, 0x00, 0x00, 0x00, 0x13, 0x00, 0x00, 0x00, 0x43, 0x4f, 0x4e, 0x56, 0x45, 0x52, 0x53, 0x49, 0x4f, 0x4e, 0x5f, 0x4d, 0x45, 0x54, 0x41, 0x44, 0x41, 0x54, 0x41, 0x00, 0x08, 0x00, 0x0c, 0x00, 0x08, 0x00, 0x04, 0x00, 0x08, 0x00, 0x00, 0x00, 0x0f, 0x00, 0x00, 0x00, 0x04, 0x00, 0x00, 0x00, 0x13, 0x00, 0x00, 0x00, 0x6d, 0x69, 0x6e, 0x5f, 0x72, 0x75, 0x6e, 0x74, 0x69, 0x6d, 0x65, 0x5f, 0x76, 0x65, 0x72, 0x73, 0x69, 0x6f, 0x6e, 0x00, 0x11, 0x00, 0x00, 0x00, 0xc4, 0x30, 0x00, 0x00, 0xbc, 0x30, 0x00, 0x00, 0xa8, 0x30, 0x00, 0x00, 0x7c, 0x30, 0x00, 0x00, 0x44, 0x30, 0x00, 0x00, 0xf8, 0x2f, 0x00, 0x00, 0x14, 0x04, 0x00, 0x00, 0xac, 0x01, 0x00, 0x00, 0xd4, 0x00, 0x00, 0x00, 0xb0, 0x00, 0x00, 0x00, 0xa8, 0x00, 0x00, 0x00, 0xa0, 0x00, 0x00, 0x00, 0x98, 0x00, 0x00, 0x00, 0x90, 0x00, 0x00, 0x00, 0x88, 0x00, 0x00, 0x00, 0x68, 0x00, 0x00, 0x00, 0x04, 0x00, 0x00, 0x00, 0x9a, 0xcf, 0xff, 0xff, 0x04, 0x00, 0x00, 0x00, 0x54, 0x00, 0x00, 0x00, 0x0c, 0x00, 0x00, 0x00, 0x08, 0x00, 0x0e, 0x00, 0x08, 0x00, 0x04, 0x00, 0x08, 0x00, 0x00, 0x00, 0x10, 0x00, 0x00, 0x00, 0x24, 0x00, 0x00, 0x00, 0x00, 0x00, 0x06, 0x00, 0x08, 0x00, 0x04, 0x00, 0x06, 0x00, 0x00, 0x00, 0x04, 0x00, 0x00, 0x00, 0x00, 0x00, 0x00, 0x00, 0x00, 0x00, 0x0a, 0x00, 0x10, 0x00, 0x0c, 0x00, 0x08, 0x00, 0x04, 0x00, 0x0a, 0x00, 0x00, 0x00, 0x02, 0x00, 0x00, 0x00, 0x02, 0x00, 0x00, 0x00, 0x04, 0x00, 0x00, 0x00, 0x06, 0x00, 0x00, 0x00, 0x32, 0x2e, 0x31, 0x32, 0x2e, 0x30, 0x00, 0x00, 0xfa, 0xcf, 0xff, 0xff, 0x04, 0x00, 0x00, 0x00, 0x10, 0x00, 0x00, 0x00, 0x31, 0x2e, 0x31, 0x34, 0x2e, 0x30, 0x00, 0x00, 0x00, 0x00, 0x00, 0x00, 0x00, 0x00, 0x00, 0x00, 0xec, 0xc8, 0xff, 0xff, 0xf0, 0xc8, 0xff, 0xff, 0xf4, 0xc8, 0xff, 0xff, 0xf8, 0xc8, 0xff, 0xff, 0xfc, 0xc8, 0xff, 0xff, 0x2a, 0xd0, 0xff, 0xff, 0x04, 0x00, 0x00, 0x00, 0x14, 0x00, 0x00, 0x00, 0x66, 0x4e, 0xe2, 0xbf, 0x0c, 0xa3, 0x92, 0x3e, 0xf5, 0xba, 0x58, 0x3f, 0x5b, 0x9c, 0x0f, 0xc0, 0x75, 0x09, 0x44, 0xc0, 0x4a, 0xd0, 0xff, 0xff, 0x04, 0x00, 0x00, 0x00, 0xc8, 0x00, 0x00, 0x00, 0xdf, 0x53, 0x85, 0xbe, 0xf3, 0xa7, 0x82, 0xbe, 0x53, 0x87, 0x03, 0x3f, 0xe2, 0x46, 0x15, 0x3f, 0x39, 0x82, 0xca, 0xbf, 0x8e, 0x78, 0xc9, 0xbf, 0xc9, 0x4d, 0x9f, 0x3e, 0x0f, 0x84, 0xa3, 0xbe, 0xf5, 0x73, 0xac, 0xbf, 0xe5, 0x10, 0x9d, 0xbf, 0xf1, 0x10, 0xf8, 0xbe, 0x91, 0xd4, 0xc7, 0xbe, 0xd6, 0xbb, 0xa4, 0xba, 0xb3, 0x39, 0xaf, 0xbe, 0xe2, 0xbb, 0xbd, 0x3b, 0x3e, 0xe4, 0x82, 0xbd, 0x40, 0xb1, 0x76, 0xbe, 0x70, 0xfb, 0xf1, 0xbe, 0x07, 0x1a, 0x00, 0xbf, 0x08, 0xd2, 0xdb, 0x3e, 0xec, 0x02, 0x8b, 0xbf, 0xa6, 0xfc, 0x6c, 0x3f, 0x83, 0x54, 0x0b, 0x3f, 0x62, 0x80, 0x52, 0xbe, 0x30, 0x5e, 0x21, 0x3f, 0xd0, 0x97, 0x64, 0x3f, 0xb7, 0x45, 0x2f, 0xbe, 0x40, 0x5f, 0x0c, 0xbf, 0x65, 0xe7, 0xbd, 0x3f, 0x15, 0x07, 0x11, 0x3f, 0xb0, 0x77, 0xed, 0x3f, 0x01, 0x56, 0x52, 0xbf, 0x2f, 0xaa, 0x50, 0x3d, 0x03, 0x71, 0x46, 0xbf, 0xd9, 0x2c, 0x73, 0xbd, 0x76, 0x87, 0x26, 0xbf, 0xbc, 0x8e, 0x80, 0x3f, 0x89, 0xdf, 0x02, 0x3f, 0x07, 0xdb, 0xf4, 0x3e, 0x05, 0xae, 0x41, 0x3e, 0x6d, 0xf9, 0x4f, 0xbf, 0x71, 0x05, 0x8b, 0xbf, 0xb4, 0x3b, 0xec, 0xbe, 0x79, 0xa9, 0xfe, 0x3e, 0x32, 0x1e, 0x93, 0xbf, 0x8a, 0x4e, 0xf5, 0x3d, 0xae, 0x9a, 0x65, 0x3f, 0xbd, 0xa4, 0xf4, 0xbe, 0x3a, 0x74, 0x10, 0x3f, 0xd6, 0x28, 0x0e, 0x3e, 0x1e, 0xd1, 0xff, 0xff, 0x04, 0x00, 0x00, 0x00, 0x58, 0x02, 0x00, 0x00, 0xf6, 0xfa, 0x8e, 0xbf, 0x31, 0x58, 0x95, 0xbf, 0xe0, 0x7c, 0xce, 0x3d, 0xf1, 0x43, 0xbf, 0x3e, 0x9d, 0x76, 0x92, 0x3f, 0xc2, 0x62, 0x81, 0x3e, 0x73, 0xb2, 0x8c, 0x3d, 0x70, 0x89, 0x0c, 0xbf, 0xbe, 0xa2, 0x4b, 0xbf, 0xd0, 0xce, 0xe6, 0xbc, 0x48, 0xc0, 0xbf, 0x3e, 0x4b, 0x9f, 0x8a, 0xbe, 0xe0, 0xf6, 0x97, 0x3d, 0xea, 0xc6, 0xb7, 0xbf, 0x70, 0xa0, 0x55, 0xbe, 0x97, 0x9d, 0x2a, 0x3f, 0x1b, 0x07, 0x10, 0xbe, 0x8d, 0x04, 0x7f, 0x3b, 0x78, 0x0c, 0xe1, 0x3e, 0x17, 0xdb, 0x10, 0xbf, 0x50, 0xe1, 0x72, 0x3e, 0x89, 0xc2, 0x09, 0xbf, 0xf0, 0x6e, 0xdf, 0x3e, 0xee, 0xbc, 0x46, 0xbe, 0xa6, 0xf7, 0x37, 0x3f, 0x9f, 0x19, 0x23, 0x3f, 0xf5, 0xe8, 0x3b, 0x3e, 0x16, 0x10, 0x3b, 0x3f, 0xb2, 0xdd, 0xaa, 0x3e, 0x9e, 0xf2, 0x81, 0xbe, 0xe3, 0xe2, 0xc5, 0x3e, 0x17, 0xc5, 0x96, 0x3e, 0x68, 0x2c, 0x16, 0x3f, 0xd5, 0xff, 0x18, 0x3f, 0x5f, 0x65, 0x10, 0x3f, 0x52, 0xde, 0x87, 0x3f, 0xd0, 0xc7, 0x36, 0x3f, 0xef, 0xdc, 0x42, 0x3f, 0x39, 0x05, 0x1a, 0x3d, 0x2c, 0x3b, 0x98, 0x3e, 0xa1, 0xf4, 0xd1, 0xbe, 0x7d, 0x75, 0x48, 0x3f, 0xb6, 0x0b, 0x03, 0x3c, 0x4a, 0x1f, 0xa3, 0x3e, 0xf2, 0x06, 0x6d, 0x3e, 0x59, 0x63, 0x1b, 0xbf, 0x0c, 0xe2, 0xf7, 0x3e, 0x81, 0x92, 0x38, 0x3f, 0x39, 0x2b, 0xa8, 0x3e, 0x70, 0xac, 0x72, 0xbe, 0xcf, 0xfd, 0x4a, 0x3e, 0xfe, 0x49, 0x12, 0x3f, 0x8c, 0xfb, 0xea, 0x3e, 0x99, 0x8a, 0x92, 0x3e, 0xd8, 0xb2, 0x29, 0xbf, 0x2d, 0xb5, 0xc0, 0xbd, 0x64, 0x81, 0x0b, 0xbe, 0xdd, 0x2b, 0x5f, 0xbf, 0x53, 0xf5, 0x29, 0x3f, 0xb8, 0x98, 0xc9, 0x3d, 0x6c, 0xf4, 0xef, 0x3e, 0x6e, 0x0b, 0x34, 0x3e, 0xf2, 0x63, 0x1e, 0xbf, 0xe9, 0xc0, 0x00, 0x3d, 0x8b, 0x77, 0x86, 0xbb, 0x8a, 0xc6, 0xa0, 0xbd, 0x71, 0x76, 0x43, 0x3f, 0x50, 0xc5, 0x9c, 0x3b, 0x07, 0x04, 0x8e, 0xbe, 0xf9, 0xaf, 0x0b, 0x40, 0xff, 0x74, 0x21, 0x3f, 0x54, 0x5f, 0xcd, 0x3e, 0x18, 0xd3, 0x6e, 0x3e, 0x68, 0x92, 0x07, 0xbf, 0xd2, 0x20, 0xad, 0xbe, 0xf2, 0xec, 0x7a, 0x3e, 0x00, 0x1a, 0x80, 0x3e, 0x18, 0xab, 0x52, 0xbf, 0xd5, 0x01, 0x1c, 0xbf, 0xfc, 0x1c, 0xf2, 0x3e, 0x1c, 0x61, 0xa7, 0x3e, 0x4d, 0x47, 0x0d, 0xbd, 0x2d, 0xd0, 0x20, 0xbe, 0x8e, 0x70, 0x2b, 0x3f, 0x01, 0x99, 0x5c, 0x3f, 0x8e, 0xd5, 0x39, 0x3f, 0x08, 0x47, 0xd9, 0xbe, 0xe3, 0xe4, 0xbb, 0x3e, 0x4d, 0x8e, 0x8a, 0x3c, 0xaf, 0x93, 0x00, 0xbf, 0xc5, 0xfd, 0x1a, 0xbd, 0xcb, 0x2f, 0xc5, 0x3e, 0xda, 0x13, 0x8e, 0xbd, 0xad, 0x95, 0x26, 0xbe, 0x9b, 0x23, 0x27, 0x3f, 0xf6, 0x38, 0xac, 0xbe, 0x7e, 0xfd, 0xee, 0xbd, 0x0e, 0xf2, 0x46, 0x3e, 0x12, 0x9e, 0xc8, 0x3e, 0xb4, 0xc5, 0xe2, 0xbf, 0x95, 0xa9, 0x0f, 0xbf, 0x89, 0x50, 0xcb, 0xbe, 0xf1, 0x29, 0x4d, 0x3e, 0x17, 0x68, 0xa2, 0x3e, 0x9c, 0x1a, 0xc5, 0x3e, 0xb2, 0xdd, 0xef, 0xbe, 0xd7, 0xdf, 0xf3, 0xbe, 0x53, 0xba, 0x0d, 0xbe, 0xe5, 0xdb, 0xf7, 0xbe, 0xf5, 0x3b, 0xdd, 0xbe, 0xf0, 0x4b, 0x8a, 0xbe, 0xe6, 0x00, 0xb6, 0xbe, 0xcb, 0x48, 0x99, 0x3e, 0x7b, 0xe1, 0x62, 0x3e, 0x18, 0xed, 0x66, 0xbd, 0x71, 0xba, 0xcd, 0x3e, 0xb4, 0xa7, 0x38, 0xbe, 0x50, 0x36, 0xde, 0xbd, 0x4d, 0xf7, 0x1f, 0x3e, 0x2b, 0x6f, 0x17, 0x3e, 0xa3, 0x03, 0xf4, 0xbd, 0xcf, 0x1e, 0xb0, 0xbe, 0x30, 0xfa, 0x8c, 0x3e, 0x68, 0x97, 0x0b, 0x3f, 0x42, 0x98, 0xa9, 0xbe, 0x6a, 0x3b, 0xf7, 0xbe, 0x5a, 0x31, 0xba, 0xbc, 0xa8, 0xba, 0x21, 0x3f, 0x91, 0x64, 0x3e, 0xbf, 0x96, 0x7c, 0x09, 0x3f, 0xfe, 0xd5, 0x3e, 0x3f, 0xf2, 0x09, 0x27, 0x3f, 0x40, 0x74, 0xd1, 0x3e, 0xad, 0xa6, 0x26, 0xbf, 0x45, 0xea, 0x2d, 0x3f, 0x53, 0xa5, 0x47, 0xbd, 0x1a, 0xcd, 0xa6, 0xbe, 0x7a, 0xe4, 0x89, 0xbc, 0xb0, 0xa7, 0xe8, 0x3e, 0x4e, 0x64, 0xb1, 0xbe, 0x62, 0x04, 0x93, 0x3d, 0xba, 0x54, 0x3e, 0x3e, 0x1f, 0x42, 0x81, 0xbe, 0x94, 0xba, 0x47, 0x3d, 0x9f, 0xdd, 0xc6, 0x3f, 0xec, 0x3c, 0x80, 0x3f, 0x07, 0x72, 0x1e, 0x3f, 0x43, 0x01, 0x6f, 0x3f, 0x4c, 0x99, 0x02, 0xbf, 0x0d, 0x8f, 0x4f, 0x3f, 0x82, 0xd3, 0xff, 0xff, 0x04, 0x00, 0x00, 0x00, 0xd4, 0x2b, 0x00, 0x00, 0x8b, 0x8f, 0x16, 0xbd, 0x20, 0x11, 0x73, 0xbe, 0x0f, 0xc8, 0xc5, 0xbd, 0xd9, 0x7a, 0xf9, 0xbe, 0xed, 0xcd, 0x29, 0x3e, 0x18, 0xa7, 0xe4, 0x3d, 0x3c, 0xa4, 0x3e, 0xbe, 0xc7, 0x6b, 0x4b, 0xbe, 0xb4, 0x42, 0x80, 0x3a, 0xf6, 0x32, 0x4e, 0x3e, 0xee, 0xb1, 0xdf, 0x3d, 0x4e, 0x6f, 0x39, 0x3e, 0x6d, 0x51, 0x81, 0x3c, 0x82, 0x4a, 0x52, 0x3e, 0x88, 0x88, 0xa5, 0x3e, 0xca, 0x6a, 0x05, 0x3e, 0x1a, 0xff, 0xc6, 0x3e, 0xe5, 0xfb, 0xc6, 0x3e, 0xde, 0x14, 0x59, 0x3e, 0xdf, 0x37, 0xe4, 0x3e, 0x12, 0xcc, 0x8f, 0x3e, 0xe2, 0x4a, 0xcc, 0x3e, 0xb0, 0x43, 0x8b, 0x3e, 0x45, 0x76, 0x72, 0x3e, 0x7b, 0x43, 0xb0, 0x3e, 0xb8, 0x05, 0x0e, 0x3e, 0xba, 0x20, 0x70, 0x3e, 0xd1, 0xbd, 0x30, 0x3e, 0x00, 0x92, 0x0a, 0x3d, 0xc1, 0x84, 0x62, 0xbe, 0x2f, 0x80, 0xbd, 0xbd, 0x84, 0xd7, 0xb8, 0xbe, 0x1d, 0x46, 0x1e, 0xbe, 0xd7, 0x94, 0xb4, 0xbe, 0xbf, 0xab, 0xb1, 0x3c, 0x23, 0x5f, 0xde, 0xbd, 0x42, 0xf4, 0x6b, 0x3e, 0x3a, 0x40, 0x83, 0x3e, 0xf3, 0x65, 0x4a, 0x3e, 0x7d, 0xc6, 0xc9, 0x3e, 0xcf, 0x00, 0xbe, 0x3e, 0x15, 0x45, 0x71, 0x3e, 0x64, 0x17, 0xc4, 0x3e, 0xbf, 0x3d, 0x77, 0x3e, 0xfd, 0x7c, 0x8f, 0x3e, 0xdd, 0x6e, 0x91, 0x3e, 0x72, 0xe5, 0xd0, 0x3e, 0x5b, 0x21, 0xca, 0x3e, 0x78, 0xa6, 0x27, 0x3e, 0x07, 0xd5, 0x30, 0x3e, 0x0f, 0xfa, 0x90, 0x3d, 0xf9, 0x45, 0x4f, 0x3d, 0xd6, 0xe4, 0x1b, 0xbd, 0xc3, 0x98, 0x04, 0xbe, 0xdb, 0x3e, 0x89, 0xbe, 0xaa, 0x67, 0x93, 0xbc, 0x01, 0xae, 0x18, 0xbe, 0xab, 0x52, 0x75, 0xbd, 0x39, 0xd3, 0x9a, 0xbd, 0x5c, 0x6f, 0x88, 0xbe, 0xae, 0xc5, 0x79, 0xbd, 0x15, 0xba, 0x8f, 0xbe, 0xf5, 0xac, 0x5f, 0xbd, 0xec, 0x59, 0x7d, 0xbe, 0xac, 0x27, 0xe4, 0xbd, 0x8d, 0xdc, 0xd8, 0xbd, 0x3e, 0x6c, 0xaf, 0x3c, 0x2b, 0xd7, 0x69, 0x3e, 0x37, 0x64, 0x15, 0x3c, 0x98, 0x0e, 0xa8, 0x3d, 0x91, 0x0e, 0x0c, 0xbd, 0xf0, 0xef, 0x10, 0x3e, 0x86, 0xb3, 0x84, 0x3e, 0xf6, 0x13, 0x2b, 0x3c, 0x58, 0x64, 0xb6, 0xbd, 0x7a, 0x8a, 0x0e, 0xbc, 0xa2, 0x33, 0x75, 0xbe, 0xda, 0x17, 0xaa, 0x3d, 0x9b, 0x1b, 0xa7, 0x3d, 0x2a, 0xd7, 0x7a, 0x3e, 0xba, 0x5b, 0xb3, 0x3e, 0x87, 0xe6, 0x88, 0x3e, 0x2d, 0xfb, 0x38, 0x3e, 0xf6, 0xc3, 0x8e, 0xbd, 0x64, 0x07, 0x05, 0x3e, 0x36, 0x88, 0x8e, 0xbc, 0x84, 0x39, 0xdf, 0xbd, 0x93, 0x47, 0x88, 0x3d, 0xbe, 0x91, 0x43, 0xbd, 0x04, 0x7b, 0xb1, 0xbd, 0x1d, 0xf3, 0x37, 0x3e, 0x8f, 0x04, 0xc4, 0x3c, 0x88, 0xe7, 0x0f, 0x3e, 0x1f, 0x1c, 0x7e, 0xbb, 0xef, 0xf0, 0xeb, 0x3d, 0x6c, 0xfe, 0x40, 0xbd, 0xc9, 0x15, 0xa3, 0x3b, 0xfe, 0xf0, 0xf3, 0x3d, 0xa0, 0x58, 0xf7, 0xbd, 0xd0, 0xcf, 0x22, 0x3b, 0xee, 0x71, 0x3a, 0xbe, 0x1b, 0xbe, 0x97, 0xbe, 0x20, 0xe6, 0x26, 0x3b, 0x21, 0xa5, 0x83, 0xbe, 0xe0, 0xce, 0x43, 0xbe, 0x86, 0xcd, 0xbf, 0xbd, 0x3b, 0x1e, 0x3b, 0x3d, 0x0b, 0xf2, 0x62, 0x3d, 0xc3, 0xae, 0xdd, 0x3a, 0x70, 0x6d, 0x4e, 0x3b, 0x1a, 0x02, 0xfb, 0xbc, 0xe8, 0xe8, 0x88, 0xbd, 0x9d, 0x9b, 0x41, 0x3d, 0x18, 0x35, 0xc6, 0xbd, 0x30, 0x19, 0x3a, 0xbe, 0x1b, 0x7b, 0xe1, 0xbe, 0x4c, 0x53, 0x2b, 0xbf, 0xbc, 0xb3, 0x58, 0xbf, 0xd4, 0x35, 0xaf, 0xbe, 0x98, 0x58, 0x08, 0xbf, 0xc1, 0xd2, 0x10, 0xbf, 0xd2, 0xba, 0xb6, 0xbe, 0xae, 0x81, 0x92, 0xbd, 0xd7, 0xe9, 0x29, 0x3e, 0x63, 0xfa, 0x51, 0xbe, 0x76, 0x9d, 0x90, 0xbe, 0x9e, 0x11, 0x71, 0xbd, 0xa7, 0x32, 0x12, 0x3e, 0xa8, 0x15, 0xa4, 0xbd, 0x75, 0x99, 0x8f, 0xbc, 0x2c, 0xe3, 0xd4, 0xbe, 0x05, 0xd5, 0xfd, 0xbe, 0x22, 0x9e, 0x9c, 0xbe, 0xc2, 0x32, 0x1d, 0x3e, 0xe0, 0x2e, 0x96, 0x3d, 0x63, 0x27, 0x04, 0xbf, 0x80, 0xc6, 0x29, 0xbe, 0xc0, 0xe2, 0xea, 0x3e, 0x3d, 0x59, 0x61, 0xbe, 0x17, 0xa3, 0x38, 0xbf, 0xa4, 0xda, 0xb8, 0xbe, 0xb9, 0x3c, 0xbb, 0x3d, 0x95, 0x14, 0x22, 0x3e, 0x33, 0x21, 0x6f, 0xbe, 0xc4, 0x42, 0x43, 0xbf, 0x8e, 0xf0, 0x26, 0xbf, 0xda, 0xe6, 0x64, 0xbe, 0x58, 0xa0, 0x03, 0xbf, 0x19, 0x37, 0xaa, 0xbe, 0x56, 0xbc, 0x91, 0xbd, 0x0d, 0x10, 0xb6, 0xbe, 0x2c, 0x92, 0x55, 0xbd, 0x67, 0x54, 0x6a, 0xbe, 0x33, 0x6b, 0x3d, 0xbe, 0x12, 0xdf, 0xc9, 0xbe, 0xb7, 0x12, 0xb3, 0xbe, 0xc5, 0x5d, 0x01, 0xbf, 0xac, 0x56, 0xb4, 0xbe, 0xc8, 0xcf, 0xfa, 0xbe, 0x45, 0xee, 0xbf, 0xbe, 0xa9, 0x08, 0xea, 0xbe, 0x50, 0xde, 0x29, 0xbf, 0x37, 0x35, 0x17, 0xbf, 0x28, 0x12, 0xe8, 0xbe, 0x78, 0x2e, 0x0f, 0xbf, 0xdb, 0x42, 0x1e, 0xbf, 0xa4, 0xa8, 0xdd, 0xbe, 0x54, 0xd2, 0xaa, 0xbe, 0xec, 0x6e, 0x50, 0xbe, 0x70, 0xf2, 0xb4, 0xbe, 0x88, 0xe4, 0xb7, 0xbe, 0x24, 0x3f, 0xa8, 0xbc, 0xb1, 0x5c, 0x95, 0xbb, 0xca, 0x23, 0x10, 0xbc, 0xaf, 0xb4, 0x0a, 0xbe, 0xed, 0xd6, 0x86, 0xbb, 0x0a, 0x9c, 0x3a, 0xbe, 0x6d, 0x79, 0x0f, 0xbe, 0x95, 0x3d, 0xe8, 0xbc, 0xa5, 0xf0, 0x76, 0xbc, 0x77, 0x16, 0x05, 0xbd, 0x4f, 0x82, 0x5a, 0xbe, 0x31, 0x95, 0xa2, 0xbe, 0x65, 0x84, 0x4d, 0xbe, 0x23, 0x22, 0xbb, 0xbd, 0xab, 0x1d, 0x40, 0xbe, 0xc7, 0xc0, 0x93, 0xbd, 0x7e, 0xe9, 0x98, 0x3d, 0x69, 0xb2, 0xa4, 0x3d, 0x8f, 0xa6, 0x7a, 0xbe, 0x82, 0xca, 0x5b, 0xbe, 0x34, 0x50, 0x24, 0xbf, 0x16, 0xbf, 0xa4, 0xbe, 0x13, 0x64, 0x14, 0x3e, 0xec, 0x67, 0xc1, 0x3e, 0xc9, 0xc6, 0x37, 0x3e, 0xe2, 0xf1, 0xc1, 0xbb, 0x9e, 0x2e, 0x12, 0xbe, 0x63, 0x02, 0x4f, 0x3d, 0x79, 0xab, 0xe6, 0xbd, 0x37, 0x8a, 0x71, 0xbe, 0xaa, 0x7e, 0x49, 0xbe, 0xbd, 0x67, 0xef, 0xbd, 0x1f, 0xe2, 0x15, 0xbe, 0xef, 0xb1, 0x84, 0xbe, 0x36, 0x20, 0x61, 0xbe, 0x91, 0xd9, 0x1f, 0xbe, 0xf6, 0x3f, 0x17, 0x3c, 0x52, 0x00, 0xd7, 0x3b, 0x60, 0xd3, 0x22, 0xbd, 0xf4, 0x72, 0xd5, 0x3d, 0x19, 0x15, 0x81, 0x3d, 0xfb, 0x23, 0x9d, 0x3e, 0x97, 0x03, 0x73, 0x3e, 0x54, 0xdd, 0xac, 0x3e, 0x27, 0x03, 0x07, 0x3f, 0x95, 0x09, 0x11, 0x3f, 0x05, 0x2e, 0x0f, 0x3f, 0x9c, 0x29, 0xc8, 0x3e, 0xbd, 0x80, 0xe2, 0x3e, 0xcf, 0xfa, 0xa3, 0x3e, 0x3c, 0x65, 0x21, 0x3e, 0x86, 0x80, 0xd7, 0xbd, 0x1b, 0x5f, 0x80, 0xbd, 0x41, 0x8b, 0x19, 0xbe, 0xf3, 0xfa, 0x04, 0x3e, 0x64, 0xda, 0x8f, 0x3e, 0xaf, 0xac, 0xc8, 0x3d, 0x3d, 0x4e, 0xd1, 0x3d, 0xd6, 0xb4, 0x5b, 0x3e, 0x94, 0x1a, 0xe5, 0x3c, 0x0f, 0xf6, 0x52, 0x3b, 0x37, 0xd0, 0x3a, 0x3d, 0x07, 0xa2, 0x35, 0xbc, 0x6c, 0x53, 0x4b, 0x3d, 0xd5, 0x6f, 0xe2, 0x3d, 0x86, 0x21, 0x19, 0xbe, 0x29, 0xf3, 0x28, 0xbd, 0x4d, 0x1a, 0x80, 0x3d, 0x42, 0xb4, 0xe7, 0xbc, 0x99, 0xbb, 0x0f, 0x3e, 0x15, 0x09, 0xa8, 0xbd, 0x53, 0x5c, 0x3e, 0xbe, 0xc4, 0x7f, 0xa8, 0xbe, 0x6e, 0xa4, 0xb8, 0xbe, 0x53, 0x78, 0x2c, 0xbe, 0x0f, 0x24, 0x69, 0xbe, 0x83, 0x7b, 0xc1, 0xbe, 0x88, 0x84, 0xde, 0xbe, 0xf3, 0x7a, 0x44, 0x3d, 0xc2, 0xfe, 0x8c, 0xbd, 0xed, 0x8e, 0x39, 0x3d, 0x0e, 0xea, 0xab, 0xbd, 0x90, 0x05, 0x94, 0xbd, 0x15, 0x92, 0x1e, 0xbe, 0x55, 0xec, 0x6f, 0xbe, 0xcc, 0xf8, 0x93, 0x3d, 0x25, 0xf8, 0x10, 0xbe, 0xa2, 0x5e, 0x90, 0x3d, 0x55, 0x0c, 0x17, 0x3e, 0x43, 0x47, 0x03, 0x3e, 0x13, 0xbe, 0x74, 0x3c, 0x76, 0x21, 0x50, 0xbd, 0x6d, 0x96, 0xdb, 0xbd, 0x80, 0xcf, 0x85, 0x3e, 0xdf, 0x97, 0x95, 0xbc, 0x53, 0x3e, 0x39, 0x3e, 0x2d, 0x7f, 0x00, 0x3e, 0xd3, 0x88, 0x92, 0x3e, 0x06, 0x7b, 0x7a, 0x3d, 0x8c, 0x45, 0x77, 0xbd, 0x17, 0xdf, 0x9a, 0x3d, 0xd6, 0x0f, 0xf9, 0x3d, 0x26, 0x5e, 0x31, 0xbe, 0xcc, 0x8a, 0x91, 0x3d, 0x8e, 0x66, 0x86, 0xbb, 0xda, 0x59, 0x51, 0xbc, 0x71, 0x42, 0x0b, 0xbe, 0x81, 0x0e, 0x05, 0x3d, 0xa9, 0x91, 0x68, 0x3c, 0xbe, 0xa7, 0x06, 0xbe, 0x42, 0xa3, 0x14, 0x3e, 0x44, 0x5e, 0xb2, 0xbd, 0x6c, 0xbd, 0xde, 0xbc, 0xd5, 0x5c, 0xab, 0x3c, 0xce, 0x08, 0x4f, 0xbe, 0xec, 0x87, 0x5a, 0xbc, 0x61, 0x93, 0x14, 0x3c, 0x8a, 0xc0, 0xf8, 0xbd, 0x5c, 0x21, 0xc9, 0xbd, 0x4b, 0xf7, 0xf1, 0xbd, 0xf5, 0x0d, 0xb4, 0x3d, 0xb3, 0xc1, 0x73, 0x3d, 0xf1, 0xd0, 0xa0, 0xbd, 0xdd, 0x8e, 0x95, 0x3d, 0x2d, 0x4c, 0xc5, 0x3d, 0xc4, 0x53, 0x94, 0xbd, 0x84, 0xc9, 0x42, 0x3d, 0x64, 0x17, 0x07, 0x3e, 0x81, 0x83, 0x5e, 0x3e, 0x2b, 0x90, 0xdd, 0xbd, 0xb0, 0xd2, 0xc5, 0x3d, 0xe1, 0x8c, 0x14, 0x3e, 0xb8, 0x12, 0x50, 0x3e, 0x35, 0x76, 0xbf, 0x3d, 0x31, 0xa5, 0xc8, 0x3c, 0x5a, 0x8b, 0xb0, 0xbd, 0xca, 0x0e, 0x98, 0x3d, 0x01, 0xaa, 0xe5, 0x3c, 0xd1, 0x02, 0x23, 0x3e, 0xe9, 0x1b, 0x86, 0x3d, 0x98, 0xd1, 0xad, 0xbd, 0x33, 0x29, 0xd1, 0x3c, 0x33, 0xcd, 0x3c, 0xbe, 0x93, 0x8a, 0x1f, 0x3d, 0xc2, 0x2b, 0xb1, 0xbd, 0xcb, 0xf0, 0xae, 0xbc, 0xdd, 0x7a, 0x69, 0x3d, 0xd2, 0xca, 0x5e, 0xbd, 0x91, 0xf5, 0x87, 0xbd, 0x13, 0x0f, 0x4d, 0x3d, 0x08, 0xae, 0xf7, 0x3d, 0x8b, 0x89, 0x10, 0x3e, 0x95, 0x7d, 0x8e, 0x3d, 0xa7, 0x4d, 0x11, 0x3c, 0x23, 0x48, 0x2e, 0x3e, 0xa3, 0xd1, 0xcb, 0xbd, 0xbe, 0x77, 0x59, 0xbc, 0x0e, 0x8c, 0x9e, 0xbd, 0xf0, 0xcd, 0xb7, 0xbb, 0x24, 0x91, 0xb5, 0x3e, 0x25, 0x80, 0x1b, 0xbe, 0x7b, 0xaa, 0xeb, 0xbc, 0x26, 0xa0, 0x73, 0x3e, 0x18, 0xc1, 0x22, 0x3c, 0x1c, 0xd8, 0x27, 0x3e, 0x7d, 0xf9, 0x6b, 0xbe, 0x4b, 0x43, 0x94, 0xbd, 0xf3, 0xab, 0x06, 0xbd, 0xe4, 0x35, 0x63, 0x3e, 0x68, 0xa6, 0xc9, 0xbd, 0xef, 0x5d, 0x13, 0xbd, 0x21, 0x67, 0x78, 0x3d, 0x14, 0x01, 0xb0, 0x3d, 0x29, 0xac, 0x33, 0x3d, 0x9c, 0x38, 0x95, 0x3e, 0x01, 0xd8, 0xca, 0xbe, 0xca, 0xfc, 0x37, 0x3e, 0x4a, 0x21, 0xc1, 0x3d, 0xd5, 0x93, 0x25, 0x3d, 0x3d, 0x78, 0x14, 0x3b, 0x1c, 0x02, 0x88, 0x3e, 0x53, 0x83, 0xa0, 0xbe, 0x77, 0xab, 0x73, 0xbd, 0xee, 0x36, 0x91, 0x3d, 0xfb, 0x31, 0x02, 0xbd, 0xc3, 0xa7, 0x19, 0xbf, 0x94, 0x5b, 0x8a, 0xbe, 0x7e, 0x2f, 0x44, 0x3c, 0xd9, 0x37, 0xaa, 0x3d, 0xd5, 0xb6, 0x55, 0x3e, 0xd9, 0x8d, 0x25, 0x3d, 0xcf, 0xca, 0xd5, 0xbc, 0x30, 0x03, 0x65, 0x3e, 0x11, 0xbe, 0x7c, 0x3e, 0x66, 0x81, 0x9f, 0x3e, 0x04, 0xe6, 0x94, 0x3d, 0x89, 0x3e, 0x86, 0xbc, 0x04, 0xe7, 0x51, 0xbe, 0xb2, 0x69, 0x81, 0xbe, 0x8c, 0xcf, 0xb6, 0x3c, 0x8e, 0x94, 0x17, 0x3e, 0xf1, 0x01, 0xdd, 0xbd, 0x50, 0x48, 0xbc, 0x3c, 0x0a, 0x2a, 0x31, 0x3e, 0x4d, 0x6e, 0xff, 0x3e, 0xbf, 0xd4, 0x66, 0xbe, 0xa9, 0x78, 0xae, 0x3e, 0x56, 0x45, 0x0e, 0x3e, 0xde, 0xe6, 0xa8, 0x3d, 0xc3, 0xcb, 0x13, 0x3f, 0xe9, 0xc1, 0x28, 0x3d, 0x16, 0x49, 0x1a, 0x3d, 0x49, 0x03, 0xa4, 0x3c, 0xb8, 0xef, 0xbe, 0xbd, 0x3a, 0x65, 0x51, 0x3e, 0x70, 0xb7, 0x51, 0xbe, 0xd5, 0xcf, 0xb7, 0xbd, 0x35, 0x10, 0x98, 0xbd, 0x41, 0x1b, 0x33, 0xbe, 0x7b, 0xea, 0x3d, 0xbe, 0x27, 0xa1, 0x84, 0xbe, 0x33, 0x14, 0xd0, 0xbd, 0xfd, 0xdc, 0x3f, 0xbe, 0x38, 0xd6, 0xe3, 0x3b, 0xb4, 0xae, 0xea, 0xbc, 0x59, 0xad, 0xcb, 0xbd, 0x8c, 0xde, 0x29, 0xbd, 0x32, 0xfd, 0x12, 0xbd, 0xb5, 0x30, 0xf6, 0xbc, 0x40, 0xef, 0x1e, 0x3e, 0xd3, 0xa1, 0xb5, 0x3c, 0xb0, 0x4b, 0x1f, 0x3e, 0x1a, 0x8b, 0xad, 0x3c, 0xdd, 0x49, 0x9a, 0x3d, 0x0c, 0x03, 0x4f, 0xbc, 0x8b, 0x7a, 0xfd, 0x3c, 0x9f, 0x98, 0x9b, 0xbd, 0xcb, 0x0f, 0x31, 0xbb, 0x36, 0x97, 0xbc, 0xbe, 0x7a, 0x4c, 0x77, 0xbe, 0x27, 0xf6, 0xb9, 0xbe, 0x32, 0xcc, 0x09, 0xbf, 0x7b, 0xa1, 0xd1, 0xbe, 0x59, 0x9b, 0xc5, 0xbe, 0xc5, 0xef, 0x51, 0xbe, 0x71, 0xfa, 0xe5, 0xbe, 0xba, 0x01, 0x3b, 0xbe, 0x91, 0x22, 0x2d, 0xbc, 0x0a, 0x5b, 0x28, 0xbe, 0x20, 0xdb, 0x98, 0x3d, 0x40, 0xd2, 0x85, 0xbc, 0x95, 0x22, 0x51, 0x3e, 0xce, 0xa2, 0x02, 0x3e, 0xfb, 0x13, 0x42, 0x3e, 0xa2, 0x88, 0x45, 0x3e, 0x3f, 0xf3, 0xc4, 0x3d, 0xae, 0x2f, 0x65, 0x3e, 0xf2, 0xb2, 0x8d, 0x3d, 0x3c, 0x21, 0x92, 0x3e, 0x28, 0x86, 0x05, 0x3e, 0x6d, 0x8d, 0x90, 0x3e, 0x11, 0xf7, 0xa3, 0x3e, 0xbe, 0xf6, 0xa4, 0x3e, 0xff, 0x8e, 0x30, 0x3d, 0x61, 0x2b, 0xc5, 0x3e, 0xdc, 0x38, 0xa7, 0x3d, 0x1b, 0x78, 0x6a, 0x3e, 0x98, 0x03, 0xa5, 0x3e, 0xb2, 0x51, 0x1f, 0x3d, 0x7c, 0xf9, 0x5b, 0x3d, 0xd6, 0x51, 0xcc, 0x3d, 0xe6, 0x29, 0xf0, 0xbd, 0x77, 0x30, 0xa1, 0xbd, 0x84, 0xd1, 0xd4, 0xbd, 0x95, 0x1f, 0xdf, 0x3d, 0xb5, 0x93, 0x66, 0x3d, 0x45, 0x0e, 0xe5, 0xbd, 0xff, 0xfd, 0x06, 0x3e, 0x95, 0x2c, 0xd6, 0x3c, 0xf0, 0x72, 0x4d, 0xbd, 0x17, 0x91, 0x90, 0xbd, 0x50, 0x9c, 0xda, 0x3c, 0x38, 0x6f, 0xff, 0xbc, 0x08, 0xfa, 0x3b, 0x3d, 0x25, 0x90, 0x76, 0x3d, 0x11, 0xd1, 0x41, 0xbe, 0xc3, 0xe7, 0x07, 0xbd, 0xc6, 0xff, 0xfb, 0xbd, 0x5f, 0xd1, 0x1a, 0xbe, 0xe4, 0x7d, 0x71, 0x3e, 0xb2, 0x8e, 0x3e, 0x3d, 0x1c, 0xb2, 0x47, 0xbc, 0xac, 0x58, 0x05, 0x3d, 0x6e, 0x5d, 0x5c, 0x3e, 0x66, 0x59, 0x1d, 0x3d, 0x71, 0x63, 0x7f, 0x3d, 0x3f, 0xae, 0xb1, 0xbc, 0x59, 0xde, 0x0b, 0x3d, 0xc5, 0xb9, 0x09, 0xbe, 0x70, 0x03, 0x4d, 0x3d, 0x10, 0x01, 0x8b, 0x3d, 0xae, 0xd7, 0x2a, 0xbe, 0xf7, 0xdf, 0xc2, 0x3d, 0xee, 0xfd, 0x29, 0x3d, 0x15, 0x07, 0xe8, 0xbd, 0xb1, 0x9d, 0x54, 0xbe, 0x4f, 0xd8, 0x18, 0x3d, 0xed, 0x80, 0x7d, 0xbd, 0x06, 0x48, 0x0e, 0x3d, 0xb9, 0x46, 0x92, 0x3e, 0xb5, 0x3e, 0x5a, 0x3e, 0x60, 0x6d, 0xa2, 0x3e, 0x5f, 0xe9, 0x64, 0x3e, 0x02, 0xa2, 0x54, 0x3e, 0xe1, 0xc2, 0x77, 0x3d, 0xb5, 0x47, 0xf2, 0xbd, 0x83, 0x38, 0x1d, 0xbd, 0xd9, 0xee, 0xd5, 0xbd, 0xa7, 0x6e, 0x58, 0xbc, 0xeb, 0xf3, 0x27, 0xbd, 0x93, 0xc5, 0x57, 0x3c, 0x31, 0xcc, 0x7e, 0xbe, 0xb2, 0x26, 0xcf, 0xbd, 0xc1, 0x6d, 0x9a, 0xbe, 0x23, 0x97, 0x79, 0xbe, 0x5d, 0xd9, 0xfe, 0xbd, 0xf0, 0xab, 0xd1, 0xbe, 0xf0, 0x50, 0x8a, 0xbd, 0x6f, 0xb5, 0x70, 0xbc, 0xa8, 0xc1, 0x00, 0xbd, 0x8f, 0x53, 0xd3, 0xbd, 0x99, 0x82, 0xa5, 0x3d, 0x72, 0x05, 0x23, 0xbe, 0x03, 0xf4, 0x11, 0xbe, 0x5b, 0x3b, 0x3e, 0xbe, 0xe1, 0xec, 0x6c, 0xbe, 0xb8, 0x2a, 0xb2, 0xbe, 0xaf, 0xd0, 0x4f, 0xbe, 0x3d, 0x47, 0xcc, 0xbe, 0x3e, 0xce, 0xa9, 0xbe, 0xc4, 0xa4, 0xbf, 0xbd, 0x9a, 0x03, 0xa6, 0xbe, 0xd7, 0xc1, 0x20, 0xbe, 0x7a, 0x3c, 0x8e, 0xbe, 0xd4, 0x42, 0x09, 0xbe, 0x7d, 0x92, 0x83, 0x3d, 0x8e, 0x5c, 0xd7, 0xbd, 0x10, 0x0c, 0x54, 0x3e, 0x1f, 0x46, 0x43, 0x3d, 0x00, 0x6b, 0x57, 0x3e, 0x31, 0x7f, 0xa8, 0x3e, 0xfa, 0x39, 0xbd, 0x3e, 0xff, 0x51, 0x02, 0x3f, 0x26, 0x15, 0xe2, 0x3e, 0x58, 0x1c, 0x31, 0x3f, 0x59, 0xe4, 0x46, 0x3f, 0xb0, 0x84, 0x4f, 0x3f, 0xd4, 0xd0, 0x0f, 0x3f, 0x71, 0x4d, 0x3a, 0x3e, 0x62, 0x71, 0x3b, 0x3e, 0xd3, 0x8d, 0xee, 0x3d, 0xfc, 0x86, 0x8e, 0x3e, 0x02, 0x5f, 0x91, 0xbe, 0xe1, 0x31, 0xda, 0x3e, 0x61, 0x32, 0xb7, 0x3e, 0x9f, 0xf8, 0x89, 0x3c, 0xb3, 0xc7, 0x86, 0x3d, 0xc2, 0x32, 0x71, 0xbe, 0xe3, 0x4b, 0x55, 0xbf, 0xbe, 0x95, 0x8e, 0xbe, 0x30, 0x1a, 0x8b, 0xbe, 0xb4, 0x51, 0x5a, 0xbe, 0x78, 0x02, 0xce, 0x3d, 0x09, 0x96, 0x28, 0x3e, 0xdf, 0x29, 0xad, 0x3d, 0xcf, 0xe1, 0x9a, 0xbe, 0x22, 0xfc, 0xab, 0x3d, 0x02, 0x58, 0xea, 0x3e, 0xf1, 0x4d, 0xc1, 0x3e, 0xe4, 0xc6, 0x0f, 0x3f, 0xb2, 0xf1, 0x40, 0x3f, 0xf0, 0x77, 0x19, 0x3f, 0xfa, 0x8d, 0x8e, 0x3e, 0x93, 0xc1, 0xac, 0x3d, 0xa4, 0xd2, 0xa2, 0x3e, 0x9b, 0x87, 0x1f, 0x3f, 0xc5, 0x79, 0x22, 0xbf, 0x10, 0xad, 0x11, 0xbf, 0xc8, 0xe4, 0x21, 0xbf, 0x70, 0x62, 0x0a, 0x3d, 0x1b, 0x80, 0xd5, 0x3e, 0xe3, 0x75, 0xd0, 0x3e, 0xe4, 0x04, 0x94, 0x3d, 0x7e, 0xd8, 0x73, 0x3e, 0xc4, 0x91, 0x0d, 0x3f, 0x94, 0x39, 0x34, 0x3f, 0x0e, 0x00, 0x1d, 0x3e, 0x42, 0x76, 0x16, 0xbe, 0xe7, 0xc2, 0x0d, 0x3e, 0x07, 0x0b, 0x7a, 0x3e, 0xaa, 0xfb, 0x5a, 0x3d, 0x11, 0x6a, 0xf7, 0x3d, 0x0e, 0x89, 0x34, 0x3e, 0x1d, 0x24, 0x2c, 0x3e, 0x30, 0x45, 0x91, 0x3e, 0x40, 0x7c, 0x2d, 0x3e, 0x7c, 0xe1, 0x28, 0x3e, 0x91, 0x4b, 0x80, 0x3b, 0xe4, 0xc2, 0x1f, 0x3e, 0x9b, 0xdd, 0xf2, 0x3d, 0x2b, 0x63, 0x1b, 0x3d, 0xc2, 0x16, 0x73, 0x3e, 0x1e, 0x03, 0x7a, 0xbd, 0xfc, 0x43, 0x27, 0x3d, 0x7f, 0x5a, 0xb8, 0x3c, 0x9a, 0x77, 0x5e, 0xbe, 0x6a, 0x27, 0xab, 0xbd, 0x82, 0x02, 0xd1, 0xbe, 0xc5, 0xd8, 0xea, 0xbe, 0xcc, 0x20, 0xdb, 0xbe, 0x5c, 0x1f, 0x18, 0xbf, 0x31, 0xbc, 0xb5, 0xbe, 0x9f, 0xdf, 0x0a, 0xbf, 0xa0, 0x62, 0x76, 0xbe, 0x90, 0xa0, 0x08, 0xbe, 0x09, 0xe6, 0x64, 0xbe, 0xe9, 0x72, 0x2d, 0x3e, 0xca, 0xd8, 0xe8, 0xbd, 0x80, 0xae, 0xb3, 0x3c, 0x18, 0x8f, 0x26, 0x3d, 0xfd, 0xcc, 0x6a, 0x3e, 0x93, 0x3f, 0x9d, 0x3e, 0xf3, 0xe2, 0x8e, 0x3c, 0xc0, 0xf6, 0x17, 0x3e, 0x74, 0x3a, 0xcb, 0x3d, 0xdc, 0xf9, 0x2e, 0x3e, 0x94, 0x26, 0x75, 0x3e, 0x1c, 0x0e, 0x4b, 0x3e, 0x3b, 0xc0, 0xb5, 0x3e, 0x8c, 0x5e, 0x4b, 0x3e, 0x3f, 0x4d, 0xde, 0x3d, 0x58, 0xfb, 0x72, 0x3e, 0x45, 0x32, 0x1e, 0x3e, 0x22, 0xb0, 0x56, 0xbd, 0xc1, 0xd7, 0x27, 0x3e, 0x0f, 0x86, 0x5d, 0x3e, 0x0b, 0x81, 0x36, 0x3e, 0x98, 0xc4, 0x2c, 0x3e, 0xbf, 0x3f, 0xfe, 0x3e, 0x97, 0x23, 0x12, 0x3f, 0x67, 0x98, 0xb2, 0x3e, 0x6e, 0xec, 0xad, 0x3e, 0xdd, 0x57, 0xa4, 0x3e, 0x4f, 0xac, 0xcd, 0x3e, 0x1c, 0x7a, 0xc0, 0x3d, 0xf3, 0xa4, 0x70, 0x3e, 0x4a, 0x3a, 0xd5, 0x3e, 0x4a, 0x99, 0xde, 0x3d, 0x9f, 0x23, 0xd8, 0x3d, 0x16, 0x32, 0xfb, 0x3d, 0x50, 0x33, 0xed, 0x3c, 0x9f, 0x70, 0x87, 0xbc, 0x3b, 0x87, 0x6f, 0x3d, 0xf4, 0x84, 0x79, 0xbe, 0x54, 0xc6, 0x12, 0x3d, 0x78, 0x4c, 0xd6, 0xbc, 0x04, 0x91, 0x15, 0x3e, 0x23, 0xa4, 0x1b, 0xbe, 0xdc, 0x08, 0x03, 0xbd, 0xcf, 0x17, 0xb7, 0xbd, 0xee, 0x8c, 0x3a, 0x3e, 0x94, 0xd7, 0x7c, 0x3d, 0xf5, 0x58, 0xbc, 0xbd, 0x79, 0xb8, 0x7d, 0x3c, 0xde, 0x07, 0x81, 0x3c, 0xcc, 0x02, 0x4b, 0x3e, 0xea, 0xf2, 0x5b, 0x3e, 0x74, 0x22, 0x4f, 0x3e, 0xd2, 0x1a, 0x45, 0x3e, 0x40, 0x15, 0xa2, 0x3e, 0x8b, 0x77, 0x91, 0x3e, 0x82, 0x58, 0xba, 0xba, 0x2f, 0x68, 0x09, 0x3e, 0x8a, 0x13, 0x5f, 0x3e, 0xde, 0xe2, 0x6f, 0x3e, 0xff, 0x12, 0x09, 0x3e, 0x48, 0x7e, 0x9b, 0x3c, 0x80, 0x8b, 0x07, 0xbe, 0xfb, 0xb6, 0x7f, 0xbc, 0xb4, 0x28, 0x06, 0x3d, 0x23, 0x0f, 0x12, 0x3e, 0x8c, 0x55, 0x2a, 0x3e, 0x52, 0x32, 0x1e, 0xbc, 0x87, 0x25, 0x88, 0x3e, 0x22, 0x91, 0xda, 0xbd, 0x6f, 0x24, 0xc0, 0x3d, 0x79, 0x60, 0xa0, 0x3e, 0x99, 0xf5, 0xc9, 0x3d, 0x7c, 0x87, 0xeb, 0xbd, 0x37, 0x52, 0xda, 0xbd, 0x34, 0xd2, 0xbe, 0x3d, 0x7e, 0xeb, 0x45, 0x3d, 0x23, 0xea, 0x86, 0x3d, 0x48, 0x86, 0x6a, 0x3e, 0xf6, 0x27, 0x07, 0x3e, 0x38, 0xd0, 0x2b, 0x3e, 0xe8, 0x60, 0xb3, 0xbd, 0xab, 0x8d, 0x11, 0xbe, 0x2b, 0x5a, 0x48, 0xbd, 0x62, 0x24, 0x29, 0x3e, 0xdb, 0xd6, 0x80, 0xbc, 0x9a, 0x3f, 0x76, 0x3e, 0xf5, 0x39, 0x43, 0x3d, 0x76, 0x23, 0x22, 0x3e, 0xd1, 0x23, 0xe1, 0x3d, 0xf1, 0x5f, 0x10, 0xbc, 0x24, 0xe6, 0xf1, 0x3c, 0xea, 0x36, 0x11, 0xbe, 0xd8, 0x4a, 0x3e, 0xbd, 0x21, 0x9b, 0x75, 0x3e, 0x76, 0xfe, 0x30, 0xbc, 0xb7, 0x97, 0x54, 0xbd, 0x0d, 0x5b, 0xbf, 0x3d, 0x62, 0x63, 0xb7, 0xbd, 0x55, 0x02, 0x6a, 0xbd, 0x5b, 0xc2, 0x9a, 0xbe, 0x20, 0x3c, 0x9d, 0x3c, 0x8c, 0x65, 0xf5, 0xbc, 0xc5, 0xf0, 0x1b, 0xbe, 0x19, 0x3b, 0xc4, 0x3c, 0x77, 0x31, 0x9d, 0xbd, 0xab, 0xa3, 0xab, 0x3c, 0x8d, 0x70, 0xaf, 0xbd, 0xe5, 0xd8, 0x81, 0xbe, 0x72, 0xb3, 0xb4, 0xbd, 0x1e, 0x8c, 0x46, 0xbc, 0xd5, 0x66, 0x37, 0xbd, 0x4b, 0xfc, 0x80, 0xbe, 0x3d, 0xf5, 0x28, 0xbd, 0x00, 0xf3, 0xaf, 0x3d, 0xc0, 0x18, 0x5f, 0xbe, 0x78, 0x9b, 0xf9, 0xbd, 0x8c, 0xd3, 0xe5, 0xbd, 0xaa, 0x8a, 0x89, 0x3d, 0xf7, 0x46, 0x99, 0xbd, 0x7f, 0x70, 0xb5, 0xbd, 0x22, 0x8a, 0x94, 0xbe, 0x96, 0xa6, 0xe7, 0xbe, 0x60, 0x11, 0x80, 0xbd, 0x2e, 0xd4, 0x20, 0x3c, 0x5b, 0xa9, 0x81, 0xbd, 0x9e, 0x76, 0xfc, 0xbd, 0x41, 0x11, 0x86, 0x3c, 0x8f, 0x2f, 0x92, 0x3c, 0xb8, 0xa7, 0x4f, 0xbe, 0x0f, 0x38, 0x31, 0xbe, 0xe7, 0x9c, 0xb4, 0x3d, 0x94, 0xc6, 0xe8, 0x3d, 0xa2, 0xe9, 0x8c, 0xbd, 0x38, 0xde, 0x0b, 0x3f, 0xd7, 0xa2, 0xa9, 0x3e, 0x26, 0x24, 0x91, 0x3d, 0x6a, 0xab, 0x1d, 0xbe, 0x4c, 0x01, 0xe4, 0x3d, 0xd0, 0x7d, 0x8a, 0x3e, 0x9d, 0x6c, 0x90, 0x3c, 0x60, 0xf4, 0x8e, 0x3e, 0xe7, 0xfb, 0x6b, 0x3e, 0x54, 0x7b, 0x3f, 0x3e, 0x33, 0x70, 0xf2, 0x3c, 0xf4, 0xba, 0xb2, 0xbd, 0x7f, 0x82, 0xef, 0x3d, 0x9c, 0xda, 0xd9, 0x3e, 0x3e, 0x1e, 0x01, 0xbf, 0x13, 0x85, 0xfc, 0xbe, 0x39, 0xfa, 0xee, 0xbe, 0xd6, 0xb2, 0xd6, 0x3d, 0xf1, 0x9a, 0x89, 0xbb, 0x1b, 0xe2, 0x25, 0x3e, 0x19, 0xd6, 0xc3, 0x3e, 0xa6, 0x01, 0x58, 0x3e, 0x50, 0xea, 0x8d, 0xbe, 0xb4, 0xc6, 0xd0, 0xbe, 0x83, 0x2f, 0xb2, 0x3e, 0xc4, 0xd9, 0xf1, 0x3e, 0xb7, 0xcb, 0x73, 0x3e, 0x3c, 0x18, 0xd5, 0xbd, 0xb3, 0x19, 0x8e, 0xbc, 0xd7, 0x4b, 0xf8, 0xbd, 0x53, 0x59, 0x2a, 0xbd, 0x31, 0x50, 0xcb, 0xbd, 0xfd, 0xed, 0xc0, 0xbc, 0xeb, 0xa3, 0xd1, 0xbb, 0xcb, 0x19, 0x44, 0xbe, 0xd5, 0xfc, 0x9c, 0xbd, 0xe5, 0x6a, 0x24, 0xbd, 0x2d, 0xee, 0x2e, 0xbe, 0x2a, 0x54, 0x23, 0x3c, 0xef, 0x50, 0x35, 0xbe, 0x4a, 0x44, 0x51, 0xbe, 0xf7, 0x2c, 0x85, 0xbe, 0xa3, 0x08, 0x79, 0x3d, 0x68, 0x00, 0xe1, 0xbd, 0x29, 0xf2, 0x81, 0x3c, 0xb6, 0x43, 0x53, 0x3e, 0x89, 0xd5, 0xc9, 0x3e, 0x20, 0xf6, 0x25, 0x3f, 0xd9, 0x4e, 0x35, 0x3f, 0x21, 0xa6, 0x21, 0x3f, 0xf2, 0x29, 0x56, 0x3f, 0xb8, 0x67, 0x12, 0x3f, 0xcb, 0x68, 0x0e, 0x3f, 0xde, 0xb3, 0xb7, 0x3e, 0xd9, 0xab, 0xa9, 0x3e, 0x2d, 0x2b, 0x19, 0x3e, 0x49, 0xfb, 0x2b, 0x3e, 0x23, 0x08, 0x0c, 0xbe, 0xbd, 0xbd, 0x05, 0x3d, 0x55, 0xe9, 0x74, 0xbd, 0xff, 0x5d, 0x0a, 0xbd, 0x1b, 0xe1, 0x91, 0xbe, 0xc9, 0x48, 0xe4, 0xbd, 0xb3, 0x40, 0x3f, 0xbd, 0x64, 0xd8, 0x98, 0xbe, 0x10, 0x2f, 0x70, 0xbe, 0x61, 0x7c, 0x1c, 0xbe, 0x3b, 0x24, 0x42, 0xbd, 0x3b, 0x87, 0x6c, 0xbe, 0xdb, 0x72, 0x37, 0xbe, 0xae, 0x3e, 0x25, 0xbd, 0x1e, 0x9f, 0x72, 0xbd, 0x73, 0x8c, 0xc5, 0x3d, 0x9e, 0xc8, 0xd5, 0xbd, 0xbc, 0xab, 0x2f, 0xbe, 0x7f, 0xee, 0xd0, 0x3d, 0x79, 0x52, 0xc4, 0xbd, 0xa0, 0xce, 0x0f, 0xbe, 0x58, 0x19, 0xc3, 0xbd, 0xdb, 0x65, 0x96, 0x3a, 0x16, 0x77, 0xfa, 0xbd, 0x71, 0x2c, 0x13, 0xbd, 0x80, 0x45, 0x9d, 0x3d, 0x6d, 0x12, 0x2c, 0x3e, 0xd1, 0x38, 0x1f, 0xbe, 0xbb, 0x50, 0x49, 0x3c, 0xcd, 0x49, 0xa6, 0xbb, 0x4c, 0x5e, 0xe4, 0x3b, 0xce, 0x85, 0x15, 0x3e, 0x38, 0x13, 0xd0, 0x3c, 0x90, 0x16, 0x03, 0x3e, 0x83, 0x7a, 0xa5, 0x3d, 0x1e, 0x05, 0x74, 0x3e, 0xef, 0xc4, 0x0a, 0x3e, 0x8e, 0x02, 0xd5, 0x3d, 0x8b, 0x4b, 0x72, 0x3e, 0x73, 0x7a, 0x79, 0x3c, 0xb8, 0x48, 0x45, 0x3e, 0x2c, 0x62, 0x95, 0x3c, 0xa5, 0xc1, 0x7c, 0x3b, 0x10, 0xc0, 0x00, 0x3f, 0x60, 0xb8, 0x55, 0x3e, 0x26, 0x4a, 0x51, 0x3e, 0xc0, 0x5f, 0x00, 0x3d, 0x3f, 0xdf, 0xe3, 0x3d, 0x5f, 0x2a, 0xc7, 0x3a, 0x24, 0xa2, 0x1e, 0xbe, 0x15, 0x9e, 0xd4, 0x3c, 0x5c, 0xad, 0xa3, 0xbe, 0xc2, 0x90, 0x7a, 0xbd, 0x6b, 0x43, 0x45, 0x3d, 0x67, 0xd1, 0xf5, 0xbd, 0x19, 0x6a, 0xbc, 0x3d, 0x18, 0x15, 0x3c, 0x3d, 0x9e, 0x47, 0x19, 0xbc, 0x7d, 0xb3, 0x0a, 0x3d, 0xaa, 0xe6, 0x8c, 0xbd, 0x96, 0x0e, 0x00, 0xbd, 0x33, 0x03, 0x45, 0xbd, 0x88, 0x0f, 0x34, 0xbe, 0x2e, 0xc7, 0x8c, 0xbd, 0x1d, 0xb5, 0x80, 0xbd, 0xd7, 0xe5, 0xcf, 0xbd, 0xbd, 0xd6, 0x97, 0xbd, 0x1e, 0x51, 0x6b, 0x3d, 0xe3, 0x30, 0x6c, 0xbd, 0x67, 0xdf, 0xf8, 0xbc, 0xb4, 0x38, 0x8b, 0x3c, 0x04, 0x07, 0xc5, 0x3d, 0xd2, 0xaa, 0xcf, 0xbd, 0x9a, 0x77, 0xd7, 0x3d, 0x57, 0xb8, 0x94, 0xbd, 0x07, 0x36, 0x5e, 0x3e, 0xcb, 0xe5, 0x1e, 0x3e, 0x03, 0x77, 0xe2, 0x3b, 0xd3, 0x62, 0x62, 0x3e, 0x44, 0x46, 0x88, 0x3e, 0x03, 0xa2, 0x11, 0xbe, 0xbf, 0x69, 0xf9, 0x3d, 0x6a, 0x95, 0x9b, 0xbd, 0x3b, 0x3f, 0xa6, 0x3d, 0x2e, 0xc9, 0x2c, 0xbe, 0xc0, 0xa9, 0x9d, 0xbc, 0x87, 0xa2, 0x10, 0xbe, 0xe1, 0xa9, 0x0d, 0x3d, 0xcb, 0x55, 0x13, 0xbd, 0xb8, 0xd5, 0x32, 0xbe, 0x29, 0xca, 0x6e, 0xbe, 0x92, 0xc4, 0x0b, 0x3e, 0x32, 0xb4, 0x02, 0x3e, 0xd8, 0x13, 0x12, 0xbe, 0xd9, 0xcc, 0x00, 0xbe, 0x10, 0xf5, 0x5a, 0xbe, 0x1a, 0x19, 0x26, 0x3d, 0xbd, 0x17, 0x51, 0x3d, 0x55, 0xf7, 0x6f, 0xbd, 0xd4, 0x26, 0x0f, 0x3e, 0x4f, 0xe3, 0x0e, 0xbe, 0x56, 0x0d, 0x19, 0x3e, 0x50, 0x57, 0x3f, 0xbd, 0xe6, 0x83, 0x83, 0xbe, 0x89, 0x13, 0xcf, 0xbc, 0xca, 0xca, 0x0e, 0xbd, 0x35, 0xaf, 0x8f, 0xbd, 0x0c, 0x82, 0x20, 0x3e, 0x84, 0x98, 0x65, 0x3b, 0x49, 0xe0, 0x54, 0x3e, 0x57, 0xbc, 0x0d, 0xbd, 0xfe, 0x99, 0x85, 0x3d, 0x37, 0x77, 0xdc, 0xbd, 0xd0, 0x6c, 0x00, 0x3c, 0x33, 0x2a, 0xc6, 0x3b, 0xdb, 0xce, 0x51, 0xbe, 0x67, 0x9d, 0xbc, 0xbd, 0x3d, 0xae, 0x88, 0xbe, 0x4a, 0x39, 0x3f, 0x3d, 0x3b, 0x6f, 0x89, 0x3e, 0x86, 0xff, 0x1d, 0xbe, 0x4a, 0x60, 0x96, 0x3d, 0x96, 0x4d, 0x3d, 0xbd, 0xa7, 0xae, 0x65, 0xbe, 0x78, 0x1b, 0x29, 0x3e, 0xa9, 0x47, 0xa4, 0x3d, 0xa9, 0x21, 0x4c, 0xbc, 0x06, 0x36, 0x3d, 0xbe, 0xb5, 0x8e, 0x32, 0x3d, 0x75, 0x62, 0x6d, 0xbd, 0x86, 0x5e, 0x93, 0xbe, 0x94, 0xb0, 0x7f, 0xbe, 0x42, 0x3e, 0x2b, 0x3d, 0x47, 0x2f, 0x15, 0x3e, 0x8f, 0x39, 0xe3, 0xbb, 0x75, 0xdf, 0x86, 0xbe, 0x46, 0x5b, 0xeb, 0x3c, 0x13, 0x9f, 0xec, 0xbd, 0xbb, 0x35, 0xaa, 0xbd, 0x7f, 0x49, 0x1c, 0xbe, 0x0c, 0x69, 0xfb, 0xbc, 0x6f, 0xc8, 0x62, 0x3e, 0x22, 0x6a, 0x5b, 0x3a, 0x7c, 0xb0, 0xaf, 0xbe, 0xd8, 0xa8, 0x93, 0x3e, 0x98, 0xbe, 0x59, 0xbc, 0x0b, 0xa8, 0xfa, 0x3c, 0x45, 0xc9, 0x19, 0x3e, 0xfe, 0x03, 0xdf, 0xbd, 0xc3, 0xe5, 0x21, 0xbf, 0x4e, 0xce, 0x2d, 0x3e, 0x56, 0xfd, 0x93, 0xbe, 0x1b, 0x86, 0xde, 0xbe, 0x37, 0xdb, 0xf3, 0x3c, 0x35, 0xac, 0xb6, 0xbe, 0xff, 0x7f, 0xc0, 0xbd, 0x73, 0x2c, 0x64, 0x3e, 0x52, 0x8f, 0x64, 0x3e, 0xd2, 0x33, 0x59, 0x3d, 0x5b, 0xcd, 0xe5, 0x39, 0x50, 0x93, 0x8c, 0x3d, 0xc1, 0x81, 0x77, 0x3e, 0x0b, 0xf5, 0x9c, 0x3d, 0xa5, 0x0a, 0x8e, 0x3e, 0x35, 0xdd, 0x0e, 0x3e, 0x78, 0xf2, 0xbd, 0x3e, 0xdd, 0xeb, 0x63, 0x3e, 0x7d, 0x25, 0x65, 0x3e, 0x2c, 0x35, 0x6e, 0x3e, 0x61, 0x4c, 0xa4, 0x3e, 0xc2, 0xf1, 0xaf, 0x3e, 0xf3, 0x22, 0x88, 0x3e, 0xb8, 0x8b, 0x62, 0x3e, 0x1e, 0x81, 0x2b, 0x3e, 0x6a, 0xf5, 0xa9, 0x3e, 0xed, 0x82, 0x4a, 0x3e, 0x68, 0xff, 0xee, 0x3d, 0xe7, 0x9f, 0x0b, 0x3e, 0x88, 0x47, 0x80, 0x3e, 0x4b, 0xfe, 0x29, 0xbd, 0x5c, 0x17, 0x81, 0x3d, 0x0a, 0x1f, 0x74, 0x3d, 0xb5, 0xc0, 0x53, 0x3c, 0xa7, 0x50, 0x18, 0x3e, 0x67, 0xcb, 0x7a, 0x3d, 0x88, 0x53, 0x7e, 0xbc, 0x2b, 0x8e, 0x7b, 0x3d, 0xcc, 0x9c, 0x7d, 0xbe, 0xe0, 0xef, 0xa7, 0x3d, 0x11, 0xbd, 0x15, 0xbe, 0x23, 0x74, 0x05, 0x3e, 0xf2, 0xf3, 0x06, 0x3e, 0xdc, 0x49, 0x6d, 0x3b, 0x03, 0xff, 0xd1, 0x3d, 0x11, 0xd2, 0x68, 0x3d, 0x3c, 0x29, 0x1e, 0x3e, 0x6d, 0x8d, 0xed, 0xbc, 0x96, 0xf2, 0x62, 0x3e, 0xed, 0xac, 0x88, 0x3e, 0xec, 0x35, 0x29, 0x3d, 0xe4, 0xa6, 0xcb, 0x3d, 0x28, 0x4b, 0x3c, 0x3e, 0x15, 0x96, 0xa4, 0x3d, 0x4c, 0x94, 0x50, 0x3e, 0xdf, 0x0f, 0xb0, 0xbd, 0x10, 0xdc, 0x88, 0x3d, 0x6e, 0x65, 0xc1, 0x3d, 0x2b, 0x2d, 0x5e, 0xbd, 0x40, 0xc0, 0x07, 0x3d, 0xe7, 0x03, 0x11, 0xbe, 0xeb, 0x09, 0xbe, 0x3b, 0xbf, 0xb1, 0x2c, 0x3e, 0x20, 0x8f, 0xe1, 0xbd, 0x01, 0x8e, 0x73, 0x3e, 0x2d, 0xd9, 0x9a, 0x3d, 0x1e, 0xf9, 0x9c, 0x3e, 0xbd, 0x14, 0x3c, 0x3e, 0x69, 0xeb, 0xbb, 0x3e, 0x86, 0xb3, 0x95, 0x3e, 0x5d, 0xf2, 0x0a, 0x3e, 0x4c, 0x51, 0xf5, 0x3e, 0xc2, 0xc3, 0x46, 0x3e, 0x84, 0xe4, 0xaa, 0x3d, 0x96, 0x0b, 0x0c, 0x3e, 0x1d, 0x05, 0xc8, 0x3d, 0x53, 0x57, 0x14, 0x3e, 0x43, 0xad, 0x65, 0x3e, 0x3a, 0x7f, 0x58, 0x3e, 0x3f, 0x63, 0xf6, 0x3d, 0x8a, 0x92, 0x0a, 0xbe, 0xbc, 0x41, 0xaf, 0xbe, 0xa6, 0x03, 0x54, 0xbe, 0x2c, 0xbf, 0xfe, 0xbd, 0x72, 0xa9, 0x5e, 0xbd, 0xb4, 0xa1, 0x9c, 0xbd, 0x9e, 0x1b, 0xcc, 0xbd, 0x6e, 0x32, 0x67, 0x3e, 0x3e, 0xfd, 0x3b, 0x3e, 0x42, 0x60, 0x72, 0x3d, 0x86, 0x95, 0x28, 0x3e, 0x76, 0xcc, 0xbb, 0x3e, 0x37, 0x35, 0x11, 0x3e, 0x80, 0x33, 0x89, 0xbc, 0x5c, 0x88, 0x62, 0x3e, 0x05, 0xb9, 0xae, 0xbc, 0x54, 0xc5, 0x1a, 0xbe, 0xf1, 0x38, 0x80, 0x3d, 0xc9, 0x06, 0x6a, 0x3e, 0xdd, 0xdd, 0xdf, 0x3d, 0xae, 0xa7, 0x77, 0x3e, 0x7b, 0x7a, 0xd4, 0x3e, 0xe8, 0x6d, 0x85, 0x3e, 0xe8, 0x9d, 0x35, 0x3e, 0x64, 0x28, 0x9f, 0x3d, 0xe1, 0x1d, 0x33, 0x3e, 0x45, 0xf3, 0x73, 0x3e, 0x0f, 0xff, 0x42, 0x3e, 0xf0, 0x15, 0x66, 0x3e, 0xf4, 0xd3, 0x82, 0x3c, 0xd3, 0x1b, 0x46, 0xbe, 0x3f, 0xdc, 0x1e, 0x3e, 0xc1, 0xa4, 0x1a, 0x3b, 0x03, 0x1c, 0x2e, 0x3c, 0x89, 0x23, 0x11, 0xbd, 0x47, 0x42, 0x80, 0xbc, 0x60, 0x0c, 0x10, 0x3d, 0x23, 0x93, 0x57, 0x3d, 0x19, 0x0c, 0xe5, 0xbc, 0x7c, 0x49, 0xbd, 0x3c, 0x2f, 0xc2, 0x1a, 0xbe, 0x47, 0xf4, 0xc8, 0xbd, 0x25, 0xfa, 0x88, 0xbc, 0x11, 0x49, 0xdd, 0x3d, 0x5b, 0xaa, 0x49, 0xbd, 0x59, 0xcd, 0xbd, 0x3d, 0x92, 0x08, 0x77, 0x3d, 0xa6, 0xe5, 0x58, 0xbe, 0x08, 0xb3, 0x6f, 0xbe, 0x23, 0x43, 0xa3, 0xbd, 0x2e, 0xce, 0x6c, 0x3d, 0xf7, 0x07, 0xa8, 0xbe, 0x7f, 0x44, 0x86, 0xbe, 0xed, 0x89, 0xa5, 0xbe, 0x53, 0x51, 0x31, 0xbe, 0x23, 0xc7, 0x88, 0x3d, 0x6f, 0x9f, 0xbd, 0xbd, 0x91, 0x31, 0x62, 0xbc, 0x32, 0x9e, 0x19, 0xbe, 0x47, 0xc8, 0x2f, 0xbe, 0x2b, 0x01, 0xb7, 0x3d, 0x21, 0xe6, 0x08, 0x3e, 0xf2, 0x93, 0x89, 0xbe, 0x2c, 0x57, 0x45, 0x3c, 0xa5, 0x5e, 0x44, 0x3d, 0x35, 0xe7, 0xdb, 0x3d, 0x24, 0x2a, 0x53, 0x3e, 0x00, 0x9b, 0xdd, 0xbc, 0x31, 0x6e, 0x16, 0xbe, 0x35, 0x62, 0x7c, 0x3e, 0xac, 0x2d, 0x93, 0x3e, 0x48, 0xe1, 0x39, 0xbe, 0x82, 0x4f, 0xfe, 0xbd, 0xd6, 0x98, 0x84, 0x3a, 0x21, 0xbe, 0x17, 0x3e, 0x26, 0xc2, 0xbd, 0x3e, 0x43, 0x1d, 0x71, 0x3e, 0x55, 0x16, 0x91, 0xbc, 0x0d, 0x3c, 0xa6, 0x3e, 0x12, 0x36, 0x86, 0x3c, 0x5c, 0xf3, 0x0f, 0xbe, 0x54, 0x5b, 0xfe, 0x3e, 0xa1, 0xbe, 0x41, 0x3e, 0xc5, 0xb5, 0x12, 0xbc, 0x35, 0x9f, 0xf3, 0x3e, 0x6b, 0xb2, 0x3b, 0x3e, 0xc2, 0xdb, 0x15, 0xbd, 0x4d, 0xcc, 0xc0, 0xbd, 0x26, 0x5f, 0xcf, 0xbd, 0x7a, 0xc8, 0x01, 0xbe, 0xb4, 0xc9, 0x96, 0xbe, 0x33, 0x30, 0xf9, 0xbc, 0x97, 0x30, 0x52, 0xbe, 0x2c, 0x30, 0xe2, 0xbd, 0x67, 0x4c, 0x0f, 0xbe, 0x8e, 0xbc, 0x94, 0xbe, 0xc0, 0x06, 0x35, 0xbf, 0xe4, 0xb9, 0x14, 0xbf, 0x9a, 0xd3, 0x71, 0xbe, 0xaa, 0x71, 0x2b, 0xbf, 0xed, 0xe9, 0x90, 0xbe, 0xb3, 0x7d, 0x99, 0xbc, 0x7b, 0x58, 0x14, 0xbe, 0x07, 0xba, 0xa2, 0x3d, 0x10, 0x02, 0x1e, 0x3e, 0x5a, 0xc1, 0xa8, 0xbd, 0x36, 0xbc, 0x27, 0xbe, 0x88, 0xb2, 0xec, 0xbe, 0x04, 0x8e, 0x20, 0x3e, 0x3b, 0xf6, 0xa7, 0x3e, 0xd8, 0xa5, 0x1b, 0x3d, 0x10, 0xd2, 0xb3, 0x3e, 0xd5, 0x5a, 0x10, 0x3c, 0x10, 0x05, 0xdd, 0x3c, 0xc2, 0x6e, 0xfa, 0x3d, 0xdd, 0xa2, 0x67, 0x3e, 0x0f, 0xa2, 0x56, 0x3d, 0xdf, 0x18, 0xc4, 0xbd, 0x6c, 0xac, 0x85, 0xbd, 0x61, 0x65, 0xf5, 0xbd, 0x2e, 0x9b, 0x9d, 0x3c, 0x4f, 0xef, 0x35, 0x3c, 0x45, 0x65, 0x0a, 0x3e, 0x30, 0x6b, 0x3a, 0x3e, 0x7a, 0xaf, 0x8b, 0xbd, 0x60, 0x53, 0x9b, 0x3d, 0x49, 0x34, 0x2f, 0x3e, 0x67, 0x9a, 0x10, 0x3d, 0x55, 0x24, 0x2c, 0x3d, 0xae, 0xd8, 0xa7, 0xbb, 0x9c, 0xa3, 0x13, 0xbe, 0x3c, 0x27, 0x3e, 0xbe, 0x76, 0x20, 0x48, 0xbe, 0x24, 0x1c, 0x86, 0x3d, 0x36, 0x35, 0x11, 0xbe, 0x41, 0xc2, 0x74, 0xbd, 0xba, 0x93, 0x02, 0xbe, 0x7c, 0xd8, 0xa5, 0x3c, 0x50, 0x46, 0x6b, 0xbd, 0xa5, 0x7d, 0x46, 0x3d, 0x2d, 0xeb, 0xc2, 0x3e, 0x13, 0x6c, 0xd6, 0x3e, 0xae, 0xe7, 0xb3, 0x3e, 0x6e, 0xa3, 0xcb, 0x3e, 0x25, 0xd1, 0xe0, 0x3e, 0xac, 0x18, 0x9d, 0x3e, 0x33, 0x80, 0x82, 0x3e, 0x1d, 0x93, 0x6a, 0x3e, 0x9f, 0xca, 0x93, 0x3e, 0xcf, 0xbd, 0xed, 0x3d, 0x59, 0xb1, 0xbf, 0x3d, 0x9b, 0x44, 0x70, 0x3e, 0xd9, 0x6a, 0xa9, 0x3e, 0x17, 0xef, 0x9a, 0x3e, 0x19, 0x54, 0x82, 0x3e, 0x2b, 0x6f, 0x40, 0x3e, 0xf1, 0xd8, 0xdf, 0x3d, 0xe5, 0x44, 0x16, 0x3e, 0x76, 0x1f, 0x2d, 0x3e, 0x03, 0xd1, 0x4b, 0xbe, 0x90, 0x22, 0xcf, 0xbd, 0xec, 0xae, 0xe1, 0x3d, 0x45, 0x10, 0xcb, 0xbd, 0xfe, 0x54, 0xa7, 0x3c, 0x98, 0x6f, 0x5c, 0xbe, 0xde, 0x93, 0xf8, 0x3d, 0xa5, 0x18, 0x2d, 0xbe, 0x49, 0x7a, 0xa6, 0x3d, 0xaf, 0x6d, 0xc8, 0x3d, 0xb4, 0x33, 0x46, 0x3d, 0x08, 0x4a, 0x27, 0xbe, 0xe8, 0xba, 0xe6, 0xbd, 0xb6, 0xe9, 0xc8, 0x3b, 0x8d, 0x42, 0x7f, 0xbd, 0xf7, 0x82, 0x09, 0x3d, 0x75, 0xe8, 0xab, 0xbd, 0xb9, 0x32, 0x9f, 0xbe, 0xed, 0x4d, 0xee, 0xbe, 0xb6, 0xdb, 0x9c, 0xbe, 0xa8, 0x04, 0x7d, 0xbe, 0xb6, 0xc2, 0x7f, 0x3e, 0xb8, 0x2b, 0xa9, 0x3e, 0x29, 0xe6, 0xd8, 0x3d, 0xe5, 0xd2, 0x82, 0x3e, 0x6f, 0x8f, 0x8d, 0x3e, 0x28, 0xdd, 0xec, 0x3e, 0x65, 0x80, 0xbd, 0x3d, 0x6f, 0x9d, 0x32, 0x3e, 0xf8, 0xaf, 0xa3, 0x3d, 0x5c, 0x4c, 0x7d, 0xbe, 0x47, 0xac, 0x18, 0xba, 0x2c, 0xce, 0xb7, 0xbe, 0x20, 0xe1, 0x86, 0xbe, 0xc5, 0xeb, 0x87, 0xbe, 0x7a, 0x41, 0xaf, 0xbd, 0x8e, 0xb9, 0x89, 0x3d, 0x76, 0xe9, 0x39, 0xbd, 0xe2, 0xcb, 0xfc, 0xbc, 0x02, 0xd5, 0x1d, 0x3e, 0xa9, 0x7d, 0x70, 0x3e, 0x82, 0x20, 0x6e, 0x3e, 0xc5, 0x23, 0x1d, 0x3d, 0x71, 0xf1, 0x91, 0xbd, 0x57, 0xdc, 0x9d, 0xbc, 0x86, 0x04, 0x2b, 0xbe, 0x71, 0x22, 0x0f, 0x3d, 0xfa, 0x36, 0xd0, 0x3d, 0x9c, 0x05, 0xb4, 0x3d, 0x2f, 0x85, 0xbc, 0x3d, 0x24, 0x57, 0xc0, 0xbd, 0xc4, 0x87, 0x8b, 0x3d, 0x4d, 0x15, 0x83, 0x3e, 0x19, 0xb1, 0x2c, 0x3e, 0x29, 0x20, 0x85, 0x3d, 0x63, 0x0b, 0x14, 0x3c, 0x6b, 0x46, 0x0c, 0x3e, 0xee, 0xdc, 0xbf, 0xbc, 0x9e, 0xd1, 0x09, 0x3c, 0xff, 0xaa, 0xfb, 0x3d, 0x99, 0x23, 0x92, 0xbd, 0xac, 0x38, 0xe2, 0x3c, 0x18, 0x59, 0x21, 0xbd, 0xd2, 0x72, 0x22, 0x3e, 0xe9, 0x96, 0x8f, 0x3e, 0x8b, 0xe1, 0xd4, 0x3c, 0x78, 0xea, 0x96, 0x3e, 0x8c, 0x3d, 0xcb, 0x3e, 0x7c, 0xd2, 0x8b, 0x3e, 0x07, 0x1a, 0xc5, 0x3d, 0x67, 0xf8, 0xb9, 0x3e, 0x61, 0x89, 0x96, 0xbd, 0xc1, 0xf8, 0x99, 0xbd, 0x82, 0x09, 0x81, 0xbe, 0x0e, 0x88, 0x4b, 0x3e, 0x14, 0x86, 0x98, 0x3e, 0x0b, 0x0e, 0x40, 0xbd, 0x0d, 0xb3, 0xa1, 0x3e, 0xcb, 0xef, 0xc9, 0xbd, 0xef, 0xe6, 0x93, 0xbe, 0xef, 0x0d, 0xec, 0x3c, 0xc6, 0x2b, 0xa1, 0xbe, 0x8d, 0x21, 0x86, 0xbe, 0xf6, 0xab, 0xe0, 0xbb, 0x65, 0xc8, 0x42, 0x3e, 0x5d, 0x97, 0x46, 0x3c, 0x80, 0x52, 0x14, 0xbe, 0xa2, 0x66, 0x7d, 0xbe, 0xee, 0xb6, 0xe6, 0x3d, 0xcc, 0x02, 0xa2, 0xbd, 0xd7, 0x41, 0xca, 0xbe, 0xe2, 0xe7, 0x36, 0xbe, 0xf1, 0xb2, 0x41, 0x3c, 0x24, 0xf3, 0x31, 0xbe, 0x0d, 0x1c, 0x86, 0xbc, 0xab, 0x7d, 0x2d, 0xbe, 0xbe, 0x54, 0x91, 0xbe, 0x91, 0x3d, 0x82, 0xbf, 0xcf, 0xc2, 0x3a, 0xbf, 0x81, 0xa3, 0xde, 0xbe, 0xd2, 0x8d, 0x68, 0xbf, 0xb1, 0x09, 0x4f, 0xbf, 0xa9, 0xb3, 0x60, 0xbf, 0xf4, 0xbf, 0x45, 0xbf, 0x32, 0x04, 0x13, 0xbf, 0x41, 0x66, 0xf9, 0xbe, 0x16, 0xd0, 0x02, 0xbf, 0xfb, 0xb6, 0x28, 0xbe, 0x95, 0x37, 0x11, 0x3d, 0x75, 0x09, 0x08, 0x3d, 0x80, 0x34, 0x07, 0xbe, 0x4e, 0xd8, 0x50, 0x3e, 0x06, 0xbb, 0x30, 0x3e, 0xdf, 0x01, 0x62, 0x3d, 0x22, 0xcf, 0xef, 0x3d, 0xfc, 0xbd, 0xc4, 0xbe, 0x0f, 0xba, 0xc8, 0xbe, 0x52, 0x35, 0xe1, 0xbe, 0x63, 0x91, 0x43, 0x3d, 0x9d, 0x4b, 0xe5, 0xbd, 0xd2, 0x8d, 0xa4, 0x3e, 0x8a, 0x78, 0xb4, 0x3e, 0x0c, 0xa2, 0xb5, 0x3e, 0x11, 0x1b, 0x29, 0x3e, 0x42, 0x09, 0x2a, 0x3e, 0xe4, 0x07, 0xc1, 0x3d, 0x36, 0xfc, 0xf2, 0xbc, 0xe0, 0x6a, 0x38, 0x3e, 0xaf, 0x9d, 0xa7, 0x3d, 0xc0, 0x11, 0xaf, 0x3e, 0x8c, 0x8a, 0xd9, 0x3c, 0x81, 0xfd, 0xe8, 0x3d, 0x54, 0xed, 0x07, 0x3e, 0xb6, 0x8b, 0xd6, 0x3d, 0x26, 0x73, 0x96, 0x3e, 0xd1, 0x46, 0xb4, 0x3e, 0xe2, 0xb9, 0x33, 0xbf, 0x11, 0x74, 0x26, 0xbe, 0x34, 0xb9, 0x8f, 0x3e, 0x75, 0x98, 0x34, 0x3e, 0xe1, 0x4b, 0x49, 0x3e, 0x53, 0xb4, 0x51, 0x3c, 0xb1, 0x0b, 0xf1, 0xbc, 0x03, 0x08, 0x7e, 0x3d, 0x52, 0x6a, 0xa3, 0xbd, 0x56, 0x13, 0x09, 0x3e, 0xc3, 0xff, 0xda, 0xbd, 0x9b, 0x9e, 0x94, 0xbd, 0x70, 0x58, 0xc2, 0xbd, 0x0b, 0xcb, 0x8f, 0x3d, 0x91, 0x50, 0xe7, 0xbc, 0xfa, 0xa8, 0x85, 0xbe, 0xd0, 0xee, 0x18, 0x3e, 0x5c, 0xe1, 0x79, 0xbd, 0xa1, 0x3b, 0x5f, 0xbe, 0x52, 0xdb, 0x3c, 0xbd, 0xfd, 0x8b, 0x11, 0x3d, 0x39, 0x8c, 0x3f, 0x3e, 0xc0, 0x50, 0xe7, 0xbd, 0xde, 0xe1, 0x58, 0x3e, 0x97, 0x61, 0xc8, 0x3d, 0xe7, 0xe3, 0x08, 0xbe, 0xb0, 0xb3, 0x00, 0x3e, 0x3e, 0xe1, 0x2c, 0xbe, 0x57, 0xc3, 0xd2, 0xbd, 0xc2, 0x4d, 0xfe, 0xbd, 0xc1, 0x7b, 0xb6, 0xbe, 0xc2, 0xe9, 0xa0, 0xbe, 0xa3, 0x7f, 0x0c, 0xbf, 0x6f, 0xc4, 0x04, 0xbf, 0x0f, 0x30, 0xb4, 0xbe, 0xd6, 0x56, 0xad, 0xbe, 0x87, 0x67, 0x81, 0xbe, 0x90, 0x8e, 0x00, 0xbe, 0xf7, 0x0b, 0x8c, 0xbd, 0x62, 0xd4, 0x2b, 0x3e, 0x3d, 0xd7, 0x03, 0x3e, 0x38, 0x2a, 0x11, 0x3e, 0xbb, 0x1b, 0x5d, 0x3d, 0xc3, 0xe7, 0x3b, 0x3e, 0x35, 0xe9, 0x8a, 0x3e, 0x7d, 0xe2, 0x6f, 0x3e, 0x41, 0x6a, 0x3e, 0x3e, 0x8e, 0x40, 0xa3, 0x3e, 0xa9, 0xbc, 0x72, 0x3e, 0xcc, 0x26, 0x8f, 0x3e, 0xc1, 0xd0, 0xdf, 0xbd, 0xd3, 0xd5, 0x26, 0x3e, 0x6d, 0xc1, 0x37, 0x3e, 0x4b, 0x60, 0x08, 0x3e, 0xcc, 0x20, 0xbb, 0x3c, 0xb3, 0xd1, 0x6a, 0x3e, 0xb3, 0x54, 0xaf, 0x3d, 0x73, 0x83, 0xbf, 0xbc, 0xca, 0x77, 0x0d, 0xbd, 0x45, 0xa8, 0x4e, 0x3e, 0x71, 0x48, 0xf8, 0x3d, 0xab, 0xc9, 0xc0, 0x3e, 0xf5, 0x37, 0x17, 0x3e, 0x49, 0xc4, 0x89, 0x3e, 0x21, 0x41, 0xaa, 0x3e, 0x79, 0x7a, 0x9c, 0xbd, 0xe2, 0x74, 0xc4, 0x3b, 0xce, 0x3a, 0x19, 0xbe, 0x62, 0x3a, 0x87, 0x3e, 0x07, 0xaf, 0x8f, 0x3e, 0x8a, 0xae, 0x29, 0x3e, 0x62, 0xb5, 0x46, 0x3d, 0x97, 0xa3, 0xaf, 0x3d, 0xe1, 0x05, 0x85, 0x3d, 0xf6, 0x52, 0xd9, 0xbd, 0x54, 0xa0, 0x81, 0x3d, 0x8b, 0x77, 0x96, 0x3e, 0xb6, 0x15, 0x51, 0x3e, 0x8a, 0x1f, 0xc5, 0x3e, 0x1d, 0xa8, 0x11, 0x3f, 0x1c, 0x01, 0x66, 0x3d, 0x2e, 0x81, 0x8a, 0x3e, 0x4b, 0x2e, 0x84, 0x3e, 0x5a, 0xdf, 0xf1, 0xbd, 0xb3, 0xeb, 0x24, 0xbe, 0x4c, 0x8c, 0x39, 0x3d, 0xf9, 0xda, 0xcc, 0xbd, 0x53, 0xb2, 0xa0, 0xbe, 0x14, 0xcc, 0xb0, 0xbd, 0xb7, 0x1b, 0x78, 0xbd, 0xa4, 0xb3, 0x2c, 0xbe, 0xc0, 0x8e, 0x32, 0x3e, 0xe1, 0x39, 0xdd, 0xbd, 0xe4, 0xf0, 0xfe, 0x3d, 0x1d, 0x29, 0x08, 0x3e, 0xef, 0xaa, 0x9c, 0x3c, 0x63, 0x3a, 0x10, 0xbe, 0x8d, 0xa6, 0x01, 0x3d, 0x6a, 0x89, 0xf2, 0xbc, 0x01, 0xa7, 0xcf, 0xbd, 0xd1, 0x34, 0x92, 0xbe, 0x75, 0x4f, 0xfe, 0xbb, 0x5d, 0x73, 0x5b, 0xbe, 0x41, 0x84, 0xe7, 0xbe, 0xad, 0xc0, 0x87, 0xbc, 0xda, 0x9d, 0x5a, 0xbe, 0xe2, 0x5b, 0x8a, 0x3d, 0x07, 0x66, 0x40, 0xbd, 0x9b, 0xd8, 0xe4, 0x3d, 0x57, 0x71, 0x7d, 0xbd, 0xb7, 0x7b, 0xb1, 0x3d, 0xd3, 0x79, 0x84, 0x3e, 0x8c, 0xc0, 0x77, 0x3e, 0x8d, 0x30, 0xe8, 0x3d, 0xa9, 0x0d, 0xfc, 0x3b, 0xf9, 0xfc, 0x75, 0x3e, 0x91, 0x6c, 0x19, 0x3e, 0xee, 0x63, 0xa4, 0x3e, 0xfe, 0x33, 0xb2, 0x3d, 0x12, 0x24, 0x9b, 0x3d, 0x0a, 0x0a, 0xd7, 0xb7, 0x28, 0x77, 0xd3, 0x3c, 0xed, 0x96, 0x58, 0xbd, 0x7a, 0x5b, 0xf2, 0x3d, 0xb5, 0xca, 0x1b, 0x3d, 0x16, 0x36, 0x6f, 0x3d, 0x6f, 0xb7, 0xcb, 0xbc, 0xbe, 0xbc, 0xb1, 0x3d, 0xf4, 0x1b, 0x3e, 0xbe, 0x6d, 0x19, 0x02, 0x3d, 0x00, 0x95, 0x00, 0xbe, 0x3e, 0xe6, 0x4d, 0xbd, 0xd7, 0x48, 0x23, 0x3c, 0x5d, 0x7a, 0x86, 0x3c, 0x70, 0x84, 0x2b, 0xbd, 0xe1, 0x50, 0xfd, 0xbd, 0x43, 0x0f, 0xdb, 0xbd, 0xf1, 0x34, 0x22, 0x3e, 0x75, 0xd9, 0x69, 0x3d, 0x16, 0x80, 0x74, 0xbe, 0x70, 0xd6, 0xa1, 0xbd, 0x5f, 0x42, 0x96, 0x3e, 0xc6, 0xcb, 0x14, 0xbe, 0xa5, 0x59, 0x8a, 0x3e, 0x16, 0xea, 0x36, 0xbe, 0x4d, 0x62, 0x46, 0xbd, 0x6a, 0xd8, 0x6d, 0x3e, 0x61, 0xeb, 0x88, 0x3e, 0x29, 0x43, 0xaa, 0x3e, 0x95, 0xa8, 0x10, 0x3e, 0x4e, 0xd7, 0xac, 0x3e, 0xfb, 0x27, 0x01, 0x3f, 0x7f, 0xc4, 0x40, 0x3e, 0x0e, 0x66, 0x58, 0x3e, 0xca, 0x43, 0x99, 0xbc, 0x47, 0x78, 0xd4, 0xbe, 0x98, 0x8f, 0xcb, 0xbd, 0x41, 0x6d, 0xf5, 0xbe, 0xe9, 0x08, 0xa7, 0x3e, 0x82, 0x55, 0x10, 0x3e, 0x6d, 0x7f, 0xef, 0xbc, 0xde, 0x11, 0x7d, 0xbb, 0x20, 0x20, 0x59, 0xbe, 0xb6, 0x06, 0x09, 0xbf, 0x0e, 0x55, 0xb2, 0x3e, 0xdc, 0xde, 0xad, 0x3e, 0x1e, 0x21, 0x43, 0x3e, 0x96, 0xca, 0xb4, 0x3e, 0xb0, 0x35, 0x93, 0x3e, 0x42, 0x50, 0xc8, 0x3d, 0x15, 0x0a, 0xbb, 0xbd, 0xc4, 0x83, 0xd7, 0x3e, 0x90, 0x4a, 0x0f, 0x3f, 0xfc, 0x5e, 0xbe, 0x3e, 0xa5, 0x26, 0x07, 0x3f, 0x5f, 0x77, 0x1a, 0x3f, 0x1f, 0xaf, 0x33, 0x3f, 0x41, 0xd7, 0x1d, 0xbe, 0xe9, 0x26, 0xfa, 0xbd, 0x1f, 0xf5, 0xbd, 0xbd, 0x62, 0x2d, 0x54, 0x3e, 0xde, 0xa1, 0xd9, 0xbe, 0xe0, 0xc9, 0x15, 0xbf, 0x75, 0xcc, 0xce, 0xbe, 0xbe, 0x37, 0x78, 0xbd, 0x6f, 0x38, 0xbe, 0x3d, 0x54, 0x2f, 0xc2, 0xbd, 0x27, 0x12, 0x91, 0xbe, 0x1e, 0x40, 0xe2, 0xbe, 0x12, 0x47, 0x8b, 0xbf, 0x8c, 0xce, 0x37, 0xbf, 0xb6, 0xc4, 0xd1, 0xbd, 0x33, 0xf4, 0xa7, 0x3d, 0xb8, 0x13, 0xde, 0xbd, 0xf7, 0xe3, 0x63, 0x3c, 0xba, 0xa3, 0xf1, 0xbc, 0x98, 0x4e, 0x36, 0xbe, 0xac, 0x99, 0x9f, 0x3c, 0xcb, 0xe1, 0x5a, 0xbe, 0xc8, 0xfe, 0xcf, 0x3d, 0x14, 0xc5, 0x29, 0x3d, 0x2a, 0x1b, 0x9f, 0xbe, 0xe8, 0xe2, 0xde, 0xbc, 0xdb, 0x76, 0x5c, 0xbe, 0x7a, 0xf0, 0x30, 0x3d, 0x14, 0xbe, 0xbd, 0x3d, 0xf8, 0x1c, 0x0c, 0xbe, 0xe5, 0x50, 0x99, 0x3e, 0x8e, 0x0e, 0x39, 0x3e, 0x63, 0x99, 0xc2, 0x3e, 0x7a, 0x3b, 0xfe, 0x3e, 0xfb, 0xb7, 0xa5, 0x3e, 0x80, 0xe5, 0xfc, 0x3e, 0x33, 0xe2, 0xd9, 0x3e, 0x2e, 0xba, 0x46, 0x3f, 0x41, 0xab, 0x44, 0x3f, 0xf0, 0x88, 0xe3, 0x3e, 0x05, 0xa4, 0x32, 0x3f, 0x5c, 0xce, 0x98, 0x3e, 0xc2, 0x17, 0xb4, 0x3e, 0x01, 0x51, 0x88, 0x3d, 0x35, 0x46, 0x15, 0xbe, 0x84, 0x85, 0x75, 0xbd, 0x42, 0x05, 0xf0, 0xbd, 0xc0, 0xbe, 0x49, 0x3c, 0x5b, 0x86, 0xfb, 0x3d, 0xe2, 0xbb, 0x7f, 0x3d, 0x87, 0x4a, 0x8c, 0xbd, 0xf1, 0x63, 0x4e, 0xbe, 0xe6, 0x9d, 0x24, 0xbd, 0xfe, 0xc7, 0x67, 0xbe, 0x3a, 0xe0, 0x3e, 0xbe, 0xca, 0xb8, 0x0f, 0xbe, 0x4c, 0x31, 0x26, 0xbe, 0xfc, 0xef, 0x98, 0xbe, 0x28, 0x25, 0x74, 0xbc, 0xba, 0x00, 0x60, 0xbe, 0xe3, 0x00, 0xef, 0x3d, 0xda, 0xc4, 0x3c, 0xbd, 0x6f, 0x60, 0x41, 0xbe, 0xc4, 0x59, 0xa8, 0x3d, 0x20, 0x99, 0x0d, 0xbe, 0xd4, 0xb3, 0x84, 0xbb, 0x42, 0x8d, 0xd5, 0xbe, 0xdd, 0xd4, 0x68, 0xbe, 0x39, 0x7d, 0x11, 0xbe, 0x25, 0xc3, 0xe9, 0xbe, 0x00, 0xae, 0x05, 0xbe, 0x4f, 0xd5, 0x09, 0xbe, 0x27, 0x99, 0x21, 0xbe, 0x6d, 0x2c, 0x11, 0xbe, 0x1e, 0xf2, 0xf0, 0xbd, 0x21, 0x00, 0xea, 0x3d, 0x11, 0x7b, 0x3d, 0xbd, 0x21, 0xc1, 0x8f, 0x3d, 0x25, 0x77, 0xad, 0x3e, 0xed, 0x16, 0xe9, 0x3c, 0x07, 0x6d, 0xfc, 0x3d, 0x61, 0xa7, 0x98, 0x3e, 0xeb, 0xeb, 0x97, 0x3a, 0xd1, 0x6e, 0x91, 0x3d, 0xf4, 0x4f, 0xaf, 0x39, 0xa2, 0x1a, 0xbc, 0x3e, 0x00, 0xcb, 0xd5, 0xbd, 0xc8, 0xeb, 0x83, 0x3e, 0xec, 0xba, 0x55, 0x3e, 0xbe, 0x80, 0x34, 0x3e, 0x40, 0x16, 0x43, 0x3d, 0x1e, 0x44, 0xaa, 0xbc, 0xcf, 0xbc, 0xe8, 0xbc, 0x6f, 0xd9, 0x3d, 0x3e, 0x91, 0x1d, 0x2f, 0x3c, 0x04, 0x03, 0x30, 0xbe, 0x29, 0xdc, 0x3d, 0xbe, 0x48, 0x64, 0x8b, 0xbd, 0x58, 0x18, 0x45, 0xbe, 0xa8, 0x90, 0x57, 0xbc, 0xef, 0x07, 0xe7, 0x3d, 0xad, 0xd1, 0x4e, 0x3d, 0xfb, 0x26, 0x28, 0x3d, 0x7d, 0x7c, 0x6e, 0x3d, 0x58, 0x20, 0x33, 0xbe, 0x94, 0xbd, 0xe8, 0xbd, 0x30, 0x1b, 0x00, 0x3e, 0xaf, 0x70, 0x90, 0xbd, 0xc5, 0x6f, 0x19, 0x3e, 0xb4, 0xa8, 0x0f, 0x3d, 0xc5, 0xb6, 0x32, 0x3d, 0x4b, 0xcb, 0x26, 0x3e, 0x02, 0xf1, 0x8d, 0x3e, 0x54, 0xac, 0xea, 0x3d, 0xfc, 0xbf, 0xd1, 0xbd, 0x02, 0x19, 0x5d, 0xbc, 0x32, 0xdd, 0x83, 0xbd, 0xdc, 0xb0, 0x1b, 0x3e, 0xc7, 0x8e, 0x31, 0x3e, 0x30, 0xd1, 0xa3, 0x3c, 0x29, 0x5c, 0xa5, 0x3d, 0x87, 0xcb, 0x1b, 0x3e, 0xb3, 0xdb, 0x49, 0x3d, 0x2f, 0xd3, 0x88, 0x3d, 0x38, 0xea, 0x29, 0xbd, 0x78, 0x57, 0xa7, 0x3d, 0xf5, 0x85, 0xf0, 0x3d, 0xf8, 0x9e, 0x67, 0xbe, 0x08, 0x07, 0xe0, 0xbc, 0x91, 0x0f, 0x28, 0xbe, 0x09, 0x9f, 0x4c, 0x3e, 0xb8, 0xb0, 0x9f, 0x3d, 0x08, 0x5c, 0x3b, 0xbd, 0xe8, 0x59, 0x49, 0x3d, 0x67, 0xc2, 0x60, 0x3c, 0x64, 0x0b, 0x88, 0x3e, 0xc9, 0xb1, 0x99, 0x3c, 0xe8, 0x8f, 0xf2, 0x3d, 0x39, 0x57, 0x2f, 0x3e, 0xbc, 0x10, 0x91, 0x3e, 0xd4, 0x74, 0x2a, 0xbd, 0x13, 0x38, 0x6b, 0x3e, 0x3e, 0xee, 0xcf, 0x3d, 0x62, 0x6c, 0xc5, 0x3e, 0x3d, 0xfc, 0xab, 0x3c, 0xdc, 0x4d, 0x28, 0xbd, 0xe8, 0x85, 0xea, 0x3d, 0x53, 0x12, 0x8b, 0x3d, 0xb7, 0x9d, 0x50, 0x3e, 0x8e, 0x8d, 0x92, 0x3d, 0xd1, 0xc7, 0xf0, 0xbc, 0x87, 0xb2, 0x83, 0x3e, 0x6a, 0x46, 0x2b, 0x3d, 0x62, 0x5f, 0x7e, 0xbd, 0x48, 0x49, 0x61, 0x3e, 0x01, 0x7f, 0xb7, 0x3e, 0x1c, 0xaa, 0xbf, 0x3d, 0x29, 0x32, 0xbc, 0xbe, 0x21, 0x99, 0x0a, 0x3e, 0x10, 0xa4, 0x83, 0xbe, 0xf3, 0xbc, 0xd4, 0x3d, 0x39, 0x38, 0x9d, 0xbe, 0x22, 0x45, 0xf4, 0xbd, 0x51, 0xf0, 0xac, 0x3d, 0x0e, 0xa8, 0xf9, 0x3d, 0x2f, 0x9f, 0xa5, 0x3e, 0x62, 0x7c, 0xa5, 0x3e, 0x88, 0x08, 0xd7, 0x3e, 0xdc, 0xeb, 0x92, 0x3c, 0xbd, 0x32, 0x69, 0x3d, 0x5c, 0x39, 0x89, 0x3d, 0x10, 0x84, 0x39, 0x3e, 0x07, 0xcb, 0x2b, 0x3e, 0xf6, 0xe5, 0xea, 0x3e, 0x46, 0xe7, 0x14, 0xbe, 0x95, 0xb0, 0x32, 0x3e, 0x73, 0xab, 0x12, 0x3e, 0x90, 0xf0, 0x40, 0xbe, 0x1b, 0xb0, 0x81, 0xbe, 0xd1, 0xa2, 0xeb, 0x3c, 0xc8, 0xda, 0x7e, 0x3e, 0x93, 0x71, 0x9f, 0x3e, 0xe3, 0xd9, 0x28, 0xbe, 0x2f, 0xa1, 0x29, 0xbd, 0xc1, 0x0a, 0x63, 0x3b, 0x9c, 0xd5, 0xb1, 0xbe, 0xbf, 0x26, 0xcc, 0xbe, 0xe2, 0x1a, 0x0a, 0x3e, 0x61, 0xa9, 0x11, 0x3e, 0x2b, 0x11, 0x38, 0xbe, 0x5e, 0x90, 0x88, 0xbe, 0xcf, 0xde, 0x2a, 0x3f, 0xfa, 0xbf, 0x3f, 0x3f, 0x96, 0xa3, 0x50, 0x3f, 0xe0, 0x43, 0x05, 0x3d, 0xba, 0xc3, 0xc9, 0xbc, 0x6a, 0xb9, 0xe7, 0xbe, 0xae, 0xa1, 0xbd, 0x3e, 0x76, 0x46, 0x7c, 0x3f, 0x83, 0x27, 0xbc, 0x3f, 0xb2, 0x3e, 0x8d, 0x3f, 0x72, 0x5e, 0x7e, 0x3e, 0x25, 0x91, 0x28, 0xbf, 0x77, 0x84, 0xdb, 0xbe, 0x3a, 0xe5, 0x9a, 0xbe, 0x27, 0xec, 0xce, 0xbe, 0xd9, 0xa4, 0xac, 0xbe, 0xf9, 0xf5, 0x1a, 0xbe, 0xa1, 0xd8, 0x56, 0xbe, 0x39, 0x50, 0x15, 0xbe, 0xcc, 0x2b, 0x92, 0x3d, 0x7e, 0x44, 0x72, 0xbd, 0xa9, 0xee, 0x1c, 0xbe, 0x2b, 0xdb, 0xfb, 0x3d, 0x35, 0xa2, 0x78, 0x3d, 0x65, 0x7a, 0x17, 0x3e, 0x72, 0x56, 0xcb, 0x3d, 0x4c, 0x3a, 0x0c, 0xbc, 0x48, 0x6b, 0x83, 0xbc, 0x7a, 0xfd, 0xc9, 0x3d, 0x49, 0x65, 0xb9, 0xbc, 0xb4, 0x12, 0xf3, 0x3d, 0xb5, 0x9b, 0x9d, 0x3e, 0xd9, 0xb9, 0x04, 0x3d, 0xe3, 0xb0, 0x93, 0x3d, 0x11, 0xe7, 0x19, 0x3d, 0xe3, 0x10, 0x5e, 0x3e, 0x20, 0xae, 0x87, 0x3e, 0x1b, 0xc0, 0x92, 0x3c, 0xa9, 0x1b, 0x2d, 0x3e, 0x12, 0xf4, 0x04, 0x3e, 0xe2, 0xb9, 0xdd, 0xbd, 0x0d, 0xe3, 0xa1, 0xbd, 0x72, 0x22, 0x9b, 0xbd, 0x77, 0xc3, 0xeb, 0x3d, 0x90, 0xda, 0xc6, 0xbd, 0x9b, 0xe6, 0x08, 0x3d, 0xc2, 0xe8, 0xa5, 0xbd, 0x26, 0x4d, 0x08, 0x3c, 0x31, 0x82, 0xc3, 0xbc, 0xce, 0xac, 0xff, 0xbd, 0x2d, 0x5e, 0x80, 0xbd, 0xa8, 0xcf, 0x58, 0xbe, 0xdf, 0x9f, 0x8f, 0x3c, 0x5c, 0x1e, 0x5c, 0xbe, 0x4c, 0x78, 0x36, 0xbe, 0x29, 0xd7, 0xc7, 0x3d, 0x1a, 0x99, 0x48, 0xbe, 0x30, 0xea, 0xda, 0xbe, 0x81, 0x29, 0xfd, 0xbe, 0xbb, 0x44, 0x57, 0xbe, 0x07, 0x10, 0xc6, 0xbe, 0xb0, 0x16, 0x97, 0xbe, 0x19, 0xd1, 0xbf, 0xbe, 0x26, 0x56, 0x82, 0xbe, 0xae, 0xb4, 0x8e, 0x3d, 0xca, 0x07, 0x21, 0xbe, 0xa4, 0x0c, 0x3c, 0x3e, 0x8f, 0xbd, 0x2c, 0x3e, 0x2a, 0x40, 0x7a, 0x3d, 0xd3, 0x09, 0x0c, 0xbc, 0x18, 0x3b, 0x25, 0xbe, 0x53, 0x1f, 0xa9, 0xbe, 0x47, 0x5a, 0x4b, 0xbe, 0xde, 0x7a, 0x49, 0xbe, 0x74, 0x95, 0x1c, 0xbc, 0xf0, 0xc4, 0x80, 0x3d, 0x0a, 0x9e, 0x0c, 0xbe, 0xba, 0x99, 0x9d, 0x3d, 0x5f, 0x87, 0x91, 0xbd, 0x2f, 0x17, 0x0d, 0x3e, 0xf1, 0x63, 0x69, 0x3e, 0x8b, 0xdf, 0xb4, 0x3a, 0xdf, 0x49, 0xb1, 0xbb, 0x5c, 0x67, 0x09, 0x3e, 0x85, 0x24, 0xdb, 0xbd, 0xcb, 0x26, 0x56, 0xbd, 0x8c, 0xcf, 0x35, 0x3c, 0x26, 0x8c, 0x3c, 0xbe, 0x20, 0x18, 0x1b, 0x3d, 0x04, 0xd9, 0x02, 0x3e, 0x6b, 0x5d, 0xdb, 0xbd, 0x02, 0x51, 0xda, 0xbd, 0x4b, 0x4e, 0x30, 0x3d, 0x4f, 0x4f, 0x48, 0x3d, 0x8e, 0x44, 0x35, 0xbe, 0x40, 0x9b, 0x08, 0x3e, 0x16, 0x7c, 0x5b, 0xbe, 0x16, 0x56, 0x81, 0x3d, 0xfa, 0x78, 0xbe, 0x3b, 0x82, 0x6d, 0x2e, 0xbd, 0xd0, 0x0d, 0xef, 0xbd, 0x96, 0xc0, 0xcb, 0xbd, 0x72, 0x00, 0xb2, 0xbc, 0x60, 0xe7, 0xdc, 0x3d, 0xdf, 0x0b, 0x83, 0xbd, 0xf7, 0xfd, 0xff, 0xbc, 0x59, 0xdf, 0xd2, 0x3d, 0x38, 0x18, 0x8d, 0xbd, 0x14, 0x19, 0x0e, 0x3e, 0x84, 0xc0, 0xe3, 0xbc, 0xc3, 0xa1, 0x10, 0x3e, 0x91, 0x61, 0x40, 0xbc, 0xf1, 0x8d, 0xc4, 0x3c, 0x10, 0x4f, 0x4d, 0x3e, 0x0c, 0xeb, 0x67, 0x3d, 0x43, 0x62, 0xbf, 0xbd, 0xf3, 0x1a, 0xd9, 0xbc, 0x6c, 0x66, 0xbe, 0xbd, 0xf2, 0x60, 0xf8, 0x3d, 0xee, 0xb4, 0xc5, 0x3d, 0xff, 0xcc, 0x2b, 0xbd, 0x2f, 0xcd, 0x0b, 0xbd, 0x62, 0x05, 0xac, 0x3d, 0x16, 0x75, 0x01, 0x3e, 0xe0, 0x2a, 0x28, 0x3d, 0x1c, 0xf7, 0xa9, 0xbc, 0x3b, 0xb9, 0xe0, 0x3d, 0xe4, 0x60, 0x20, 0xbd, 0xf6, 0xbc, 0x99, 0x3d, 0x88, 0x89, 0x12, 0xbd, 0xd6, 0x40, 0x6d, 0x3e, 0x3a, 0xc2, 0x6c, 0xbb, 0x84, 0x97, 0x35, 0x3e, 0x36, 0xb1, 0xa8, 0x3d, 0x99, 0x23, 0x35, 0x3d, 0x5d, 0x6d, 0xa3, 0x3d, 0x79, 0x26, 0x25, 0xbe, 0x85, 0x42, 0xdc, 0x3d, 0xb1, 0x68, 0x02, 0x3e, 0xa4, 0xc5, 0x78, 0x3d, 0x35, 0x01, 0xe5, 0xbd, 0xad, 0x1b, 0x77, 0xbe, 0x1d, 0xa6, 0xc8, 0x3d, 0xa6, 0x85, 0x9a, 0xbe, 0xe3, 0x1d, 0xf4, 0xbb, 0x3a, 0x17, 0x6a, 0xbe, 0x0b, 0xa1, 0xbd, 0x3d, 0x80, 0x97, 0x95, 0xbc, 0x8d, 0xf3, 0x4c, 0xbe, 0xc0, 0x17, 0xb8, 0x3e, 0x59, 0x35, 0xb2, 0xbc, 0xf2, 0xa1, 0x62, 0xbe, 0x99, 0x8a, 0x89, 0x3e, 0x13, 0xb7, 0xa3, 0x3c, 0xdb, 0x3e, 0x14, 0xbf, 0x3f, 0x42, 0x91, 0xbe, 0xe3, 0x26, 0xb1, 0x3e, 0xef, 0xf1, 0xd9, 0xbe, 0x55, 0xb6, 0x45, 0x3c, 0xf4, 0x67, 0x10, 0x3e, 0x78, 0x75, 0x54, 0x3d, 0x88, 0x7d, 0x67, 0x3d, 0xa2, 0xd2, 0x07, 0xbf, 0xe1, 0x1e, 0xb8, 0xbe, 0x55, 0x24, 0xc3, 0xbd, 0xfd, 0x9d, 0x94, 0xbe, 0x5b, 0x5b, 0x7e, 0x3e, 0xfb, 0x8b, 0xc1, 0x3d, 0x87, 0xa8, 0x0e, 0x3e, 0x7e, 0x24, 0x30, 0x3e, 0xc8, 0x0f, 0x85, 0x3e, 0x02, 0x49, 0xf8, 0x3d, 0x48, 0x7b, 0xaf, 0x3e, 0x67, 0xc7, 0xf2, 0x3d, 0xfd, 0x98, 0x04, 0xbf, 0xb2, 0xe7, 0xd3, 0xbe, 0xfb, 0x64, 0xda, 0xbe, 0xe7, 0x79, 0x19, 0xbf, 0x2d, 0x47, 0x06, 0xbf, 0x1a, 0x75, 0xe3, 0xbe, 0x48, 0x77, 0x20, 0xbf, 0x79, 0x5d, 0xa6, 0xbe, 0x48, 0x18, 0xa9, 0xbe, 0xd6, 0x95, 0xbd, 0xbe, 0x29, 0x38, 0x83, 0xbe, 0x7c, 0x9d, 0x07, 0xbf, 0x93, 0x4e, 0xbe, 0xbe, 0x36, 0xcd, 0x27, 0xbe, 0xba, 0xe7, 0x71, 0xbe, 0x68, 0x72, 0x25, 0xbe, 0x0e, 0x97, 0xe1, 0x3d, 0xc5, 0x7f, 0x77, 0x3e, 0x93, 0x8d, 0xd8, 0xbd, 0x50, 0x58, 0xfa, 0x3e, 0x7e, 0xf0, 0xa9, 0x3e, 0x01, 0xb8, 0x4f, 0xbe, 0xa9, 0x65, 0xc9, 0x3d, 0x0f, 0x87, 0x1e, 0xbf, 0x6b, 0xd8, 0x6c, 0xbf, 0xd5, 0xb3, 0xd4, 0xbe, 0x3a, 0x99, 0xff, 0xbe, 0x14, 0xe2, 0x78, 0xbe, 0x9b, 0x7a, 0x93, 0xbe, 0x5c, 0x6d, 0xbe, 0xbe, 0x3e, 0x7f, 0xcc, 0xbd, 0xbe, 0x32, 0x7c, 0xbe, 0x7a, 0x9e, 0xff, 0xbd, 0xce, 0xbe, 0x11, 0xbe, 0x37, 0x9e, 0x5b, 0xbe, 0x1c, 0xc1, 0x53, 0x3e, 0xf7, 0x45, 0x8e, 0xbd, 0x43, 0x62, 0xd3, 0xbd, 0x0c, 0x44, 0x12, 0x3e, 0x95, 0x39, 0x1a, 0xbd, 0x43, 0x53, 0xad, 0x3e, 0xfb, 0xe9, 0x01, 0x3e, 0x7f, 0xb8, 0x97, 0x3d, 0x0f, 0x75, 0x1e, 0x3e, 0x18, 0x42, 0xa2, 0x3d, 0x4f, 0x01, 0x50, 0x3e, 0xd4, 0xea, 0xaa, 0x3e, 0xcd, 0xa4, 0x28, 0x3e, 0xfc, 0x93, 0x1e, 0x3e, 0x03, 0x16, 0xe1, 0xbd, 0x2e, 0xb7, 0x1b, 0xbe, 0x0f, 0xdc, 0xe6, 0xbc, 0xfe, 0x25, 0x8e, 0xbe, 0x3a, 0x14, 0x24, 0x3b, 0xfb, 0x34, 0x69, 0xbe, 0xcf, 0x3a, 0xf7, 0xbb, 0xff, 0x4a, 0x0a, 0xbe, 0x6b, 0xdb, 0xe1, 0x3d, 0x06, 0xbd, 0x83, 0x3d, 0x6f, 0xe8, 0xe8, 0xbd, 0x62, 0x2a, 0x80, 0xbd, 0xdd, 0x5f, 0xdb, 0xbd, 0xb7, 0xf2, 0xf3, 0xbc, 0x9b, 0x91, 0x84, 0x3d, 0x59, 0x9d, 0xc1, 0xbd, 0x01, 0xd6, 0xbd, 0xbb, 0xe1, 0xb9, 0x84, 0x3d, 0x87, 0xb1, 0x26, 0xbc, 0xb3, 0x37, 0x84, 0xbd, 0x1e, 0xcd, 0x74, 0xbc, 0xea, 0xcd, 0xbc, 0x3d, 0x52, 0x03, 0x23, 0xbe, 0x6a, 0x7e, 0xaf, 0x3d, 0xc4, 0xe3, 0x3b, 0x3e, 0x30, 0x39, 0xd8, 0x3d, 0x00, 0x1e, 0xc4, 0x3c, 0x8b, 0x40, 0x1b, 0x3e, 0xb9, 0x65, 0x7f, 0x3d, 0x09, 0x90, 0x3d, 0x3e, 0x9c, 0x61, 0xf0, 0xbd, 0x11, 0x67, 0xf9, 0x3d, 0x68, 0xb1, 0x10, 0xbe, 0x22, 0x8e, 0x74, 0xbd, 0xb5, 0x49, 0x27, 0xbd, 0xdc, 0xbf, 0xa4, 0xbd, 0x42, 0x99, 0x89, 0x3e, 0x05, 0x4a, 0x03, 0xbd, 0xc0, 0xc1, 0x36, 0x3d, 0x11, 0x2d, 0x71, 0x3e, 0xe7, 0x5c, 0x48, 0x3e, 0x26, 0x52, 0x99, 0x3d, 0x60, 0x50, 0xaf, 0x3c, 0x05, 0xa3, 0x8d, 0xbe, 0xde, 0x07, 0x3d, 0x3e, 0xfd, 0xf7, 0x07, 0xbe, 0x75, 0x32, 0x0d, 0xbe, 0x6f, 0x24, 0x28, 0xbe, 0x70, 0xb4, 0x6c, 0xbd, 0x43, 0xc1, 0x39, 0xbe, 0xd9, 0xfc, 0x0e, 0xbe, 0x3f, 0xe3, 0x3c, 0xbe, 0xc9, 0x21, 0xfd, 0xbd, 0x4d, 0xb5, 0xb7, 0xbe, 0x5c, 0x09, 0xc7, 0xbe, 0xe7, 0x86, 0x9c, 0xbe, 0x8f, 0xce, 0xde, 0xbd, 0x23, 0x51, 0x30, 0xbe, 0x52, 0xd7, 0x40, 0x3c, 0x08, 0x85, 0x32, 0x3e, 0xf0, 0x11, 0x4e, 0x3e, 0x1a, 0xb6, 0x10, 0x3e, 0xf6, 0x4c, 0x07, 0x3e, 0x30, 0x32, 0x5e, 0x3d, 0x8a, 0x0a, 0x47, 0x3e, 0x9a, 0x78, 0x8b, 0x3e, 0x06, 0x99, 0xd9, 0x3d, 0x70, 0x85, 0x94, 0x3d, 0x5d, 0x7d, 0x70, 0x3e, 0xe2, 0x32, 0x64, 0xbd, 0x69, 0xb5, 0xb8, 0xbe, 0xac, 0x0b, 0x05, 0xbf, 0x4a, 0xef, 0x3e, 0xbf, 0x20, 0xf5, 0xa9, 0xbe, 0x71, 0xc9, 0x3b, 0xbe, 0xdc, 0xf1, 0x1f, 0x3d, 0x6c, 0x3b, 0x6f, 0x3d, 0x2a, 0xfa, 0x7c, 0xbd, 0xc1, 0x60, 0x02, 0x3e, 0xb7, 0x34, 0x2a, 0x3e, 0x30, 0x9e, 0x8b, 0x3e, 0x80, 0xe1, 0xe0, 0x3d, 0xf0, 0xb3, 0x45, 0x3e, 0x03, 0xc1, 0x13, 0x3e, 0x32, 0x07, 0xb4, 0x3e, 0xe6, 0x72, 0x52, 0x3d, 0x0d, 0x6e, 0x65, 0x3e, 0x29, 0xbc, 0x97, 0xbe, 0x46, 0xfe, 0xba, 0xbd, 0xa4, 0x78, 0x94, 0x3d, 0x62, 0xd7, 0x10, 0x3d, 0xfb, 0x2b, 0xfa, 0x3c, 0x69, 0x10, 0xa1, 0xbc, 0xe9, 0xe4, 0x2c, 0xbd, 0x5f, 0x9d, 0x6c, 0xbe, 0x5c, 0x20, 0x0f, 0xbe, 0xbb, 0x28, 0x3a, 0x3d, 0xf0, 0x81, 0x54, 0xbc, 0x48, 0x09, 0x11, 0xbe, 0xa3, 0x86, 0x78, 0xbe, 0x5f, 0x02, 0xd8, 0xbe, 0xc7, 0x5a, 0x44, 0x3c, 0xc9, 0x1c, 0x2b, 0x3e, 0x81, 0x3f, 0x11, 0xbe, 0xb2, 0x3b, 0x4e, 0xbf, 0xf5, 0x26, 0x0a, 0xbf, 0x88, 0x05, 0x08, 0x3d, 0xb2, 0x12, 0xe5, 0xbe, 0x41, 0x59, 0xaf, 0xbe, 0x24, 0x82, 0x94, 0xbe, 0x0e, 0x23, 0x02, 0xbf, 0x45, 0x11, 0x05, 0xbf, 0xed, 0xfb, 0x1f, 0xbf, 0x98, 0xa4, 0x43, 0xbe, 0x6f, 0x9d, 0x65, 0xbe, 0x77, 0xb8, 0x75, 0xbe, 0x9f, 0x54, 0x15, 0xbe, 0x67, 0x1f, 0x1b, 0x39, 0x4a, 0x49, 0xe0, 0xbe, 0x0f, 0xb0, 0x1d, 0xbf, 0xe1, 0xf6, 0xa6, 0xbe, 0x56, 0x92, 0xcb, 0xbe, 0x94, 0x5e, 0xe8, 0xbe, 0x6a, 0xd6, 0xa5, 0xbe, 0x7c, 0x81, 0xa5, 0xbe, 0xad, 0xc0, 0x7b, 0xbe, 0x09, 0x09, 0xd0, 0xbe, 0x4c, 0xb7, 0xa2, 0xbe, 0xec, 0xbc, 0x9a, 0xbe, 0xa4, 0x24, 0xac, 0xbe, 0x9c, 0xe7, 0x9c, 0xbe, 0x8c, 0x5a, 0x91, 0xbe, 0x23, 0xb4, 0xb0, 0x3d, 0x24, 0xfe, 0x79, 0x3d, 0x76, 0xc6, 0xec, 0x3c, 0x2b, 0x28, 0x0d, 0x3d, 0xb6, 0xd6, 0x9c, 0x3d, 0x8b, 0x63, 0xda, 0x3c, 0x9e, 0x64, 0xee, 0x3d, 0x4c, 0x32, 0xc7, 0xbc, 0xd7, 0x49, 0x52, 0x3c, 0xac, 0xad, 0x2f, 0xbe, 0x56, 0x6a, 0xf1, 0x3c, 0xac, 0x79, 0x53, 0xbb, 0x28, 0x9d, 0x26, 0xbe, 0xf8, 0x0d, 0xeb, 0xbd, 0x83, 0x8b, 0x07, 0x3e, 0xaa, 0xfa, 0x51, 0xbe, 0xee, 0x5a, 0xa3, 0x3d, 0x7d, 0x52, 0x58, 0x3d, 0xec, 0x9f, 0x4d, 0xbc, 0xd8, 0x26, 0x1f, 0xbe, 0x03, 0x35, 0x47, 0x3d, 0xe1, 0x74, 0xf7, 0xbd, 0x20, 0x02, 0x48, 0x3c, 0x34, 0xae, 0x8e, 0x3e, 0x93, 0x30, 0xa6, 0x3d, 0x44, 0xae, 0x05, 0x3e, 0x8a, 0x2b, 0xa2, 0xbc, 0x04, 0xb4, 0x0d, 0x3e, 0x08, 0x81, 0x23, 0x3f, 0x39, 0xa5, 0xbb, 0xbe, 0x58, 0x61, 0x03, 0xbf, 0xe2, 0x95, 0xa0, 0x3d, 0x12, 0x92, 0x0a, 0xbe, 0x79, 0x1a, 0x19, 0xbd, 0x14, 0x39, 0x75, 0x3d, 0xbf, 0xb5, 0x98, 0xbd, 0x5e, 0x15, 0x71, 0x3e, 0xf4, 0x04, 0xff, 0x3d, 0x47, 0x68, 0x81, 0xbc, 0x9c, 0x0e, 0x9e, 0x3e, 0x17, 0x81, 0x54, 0x3e, 0x24, 0x1a, 0x1d, 0x3e, 0xfb, 0x96, 0x01, 0xbd, 0xc7, 0xa7, 0x00, 0x3c, 0xda, 0x39, 0xc0, 0x3d, 0x67, 0xaa, 0xa7, 0x3d, 0x81, 0x91, 0x74, 0x3c, 0x27, 0x85, 0xb7, 0xbc, 0xd9, 0x58, 0x51, 0xbe, 0x18, 0x05, 0x96, 0xbe, 0x1a, 0x0f, 0xaa, 0xbe, 0xf8, 0xa4, 0x72, 0xbe, 0x5f, 0xed, 0xab, 0xbe, 0x06, 0x37, 0xf5, 0xbe, 0x20, 0x81, 0x00, 0xbf, 0x93, 0xa5, 0x0e, 0xbf, 0x62, 0x49, 0xa5, 0xbe, 0x3b, 0xf5, 0x1b, 0xbe, 0x4e, 0x73, 0x11, 0xbe, 0xfc, 0xb3, 0x26, 0x3e, 0x84, 0x8c, 0x26, 0xbc, 0xeb, 0xbe, 0xa7, 0x3e, 0x11, 0x02, 0x0d, 0x3e, 0xc6, 0x08, 0xde, 0x3c, 0xb2, 0xd7, 0x90, 0x3d, 0x76, 0xd1, 0x8d, 0x3d, 0xd3, 0xe8, 0xbf, 0x3d, 0x9c, 0xe4, 0xae, 0x3e, 0x01, 0xea, 0xc7, 0x3d, 0x9e, 0x3a, 0xc4, 0x3e, 0x1c, 0x19, 0xbf, 0x3d, 0x01, 0xe3, 0xa9, 0x3d, 0x34, 0x8c, 0xb6, 0x3e, 0x54, 0xc9, 0x0f, 0x3b, 0x49, 0x69, 0xd0, 0x3d, 0x2e, 0x87, 0x59, 0x3d, 0x49, 0x26, 0x12, 0xbe, 0xbc, 0x91, 0xcd, 0x3d, 0x45, 0x9d, 0xdf, 0x3d, 0x54, 0x0a, 0x35, 0x3e, 0xa3, 0xb9, 0xae, 0x3c, 0x7f, 0xa3, 0x7e, 0x3e, 0xc4, 0x68, 0xa9, 0x3e, 0x16, 0x2c, 0x64, 0x3e, 0x4e, 0x06, 0x31, 0x3e, 0x49, 0x20, 0xc1, 0x3c, 0x6d, 0xaa, 0x8c, 0x3d, 0x0e, 0xbe, 0xf3, 0x3d, 0xba, 0x94, 0x30, 0x3e, 0xf6, 0x3d, 0x64, 0x3e, 0x16, 0x2b, 0x18, 0x3e, 0x80, 0x60, 0x6c, 0x3c, 0xc3, 0x3a, 0x6f, 0xbd, 0xd4, 0x63, 0x29, 0xbd, 0xd0, 0xe8, 0x85, 0xbe, 0xe0, 0x12, 0x5f, 0x3c, 0x92, 0x71, 0x09, 0xbe, 0x75, 0x78, 0x7b, 0xbd, 0x25, 0x5c, 0x22, 0xbc, 0x54, 0x06, 0xc2, 0xbd, 0xec, 0xdc, 0x06, 0x3e, 0x38, 0x24, 0x66, 0x3d, 0xe1, 0x52, 0x94, 0x3d, 0x4d, 0x57, 0xfd, 0x3d, 0x79, 0x88, 0x18, 0x3e, 0xd0, 0x41, 0x51, 0xbc, 0xa6, 0x23, 0x22, 0x3e, 0xb3, 0x54, 0xae, 0xbc, 0x08, 0x6b, 0x32, 0xbd, 0x1a, 0x3e, 0xc7, 0x3d, 0x92, 0xda, 0x3b, 0xbd, 0x0a, 0x65, 0x50, 0xbc, 0xad, 0x84, 0x3c, 0x3d, 0x88, 0x93, 0x6c, 0xbc, 0x8e, 0x1a, 0xd4, 0x3d, 0x35, 0x38, 0x3f, 0xbe, 0x85, 0x24, 0x1c, 0xbe, 0x1b, 0x99, 0x27, 0xbe, 0x33, 0xdc, 0x8e, 0x3d, 0x3f, 0x27, 0x99, 0x3a, 0xef, 0x99, 0xa9, 0xbd, 0x0e, 0x7c, 0x7d, 0x3d, 0x99, 0xd6, 0x36, 0x3e, 0x58, 0x8a, 0x03, 0x3e, 0x9d, 0x20, 0x90, 0x3e, 0x1c, 0x70, 0x60, 0x3e, 0xa7, 0x6d, 0x3c, 0x3e, 0x91, 0x48, 0x8b, 0x3e, 0x21, 0xb9, 0x04, 0xbd, 0xf9, 0xd3, 0x6b, 0x3e, 0x71, 0x7d, 0x3d, 0xbd, 0xc0, 0x14, 0xf1, 0x3d, 0x37, 0xe3, 0x94, 0xbd, 0x6a, 0xc7, 0xbe, 0x3d, 0x26, 0x5f, 0x0d, 0x3e, 0x6d, 0xa2, 0xd5, 0xbd, 0x8d, 0xb8, 0x20, 0xbd, 0x72, 0xf9, 0x25, 0xbe, 0xc8, 0xd4, 0x3a, 0x3c, 0x98, 0x1e, 0x80, 0xbd, 0x25, 0x0b, 0x1e, 0xbd, 0x9b, 0xbd, 0x97, 0xbc, 0xf7, 0x5a, 0x74, 0xbd, 0x0b, 0x75, 0xf8, 0xbd, 0x51, 0xcd, 0x03, 0xbe, 0x55, 0x5d, 0x79, 0xbd, 0x51, 0xb7, 0xff, 0x3d, 0xf7, 0x83, 0x48, 0xbe, 0x11, 0xa1, 0x56, 0xbe, 0xde, 0x13, 0xfb, 0xbd, 0xfa, 0xc3, 0x9d, 0xbd, 0xb6, 0x7d, 0x8e, 0x3c, 0xab, 0x48, 0x9d, 0xbc, 0x44, 0x7f, 0x29, 0xbd, 0xab, 0x5c, 0x3d, 0xbe, 0x89, 0xfe, 0x72, 0x3c, 0xef, 0x53, 0xbd, 0xbd, 0x78, 0xe5, 0x78, 0x3d, 0x1c, 0x73, 0xad, 0xbe, 0xe2, 0x5b, 0xe0, 0x3d, 0xfe, 0xf2, 0x03, 0x3e, 0xec, 0x0a, 0xa9, 0xbd, 0xf4, 0x59, 0x89, 0xbd, 0x7e, 0x81, 0x32, 0x3c, 0x25, 0xf8, 0x47, 0x3e, 0xc5, 0xc0, 0x12, 0x3e, 0xd9, 0xae, 0x6d, 0xbe, 0x5d, 0xe5, 0x2f, 0x3d, 0xf5, 0x58, 0xbb, 0xbc, 0xd4, 0x4f, 0x8d, 0xbd, 0x0e, 0x6f, 0x12, 0x3e, 0x60, 0x8d, 0xfd, 0xbc, 0xcb, 0x69, 0x92, 0x3e, 0x42, 0x27, 0x73, 0xbe, 0x25, 0xaa, 0x70, 0xbd, 0x88, 0x16, 0x5b, 0xbe, 0x49, 0x59, 0x6f, 0x3d, 0x05, 0xf1, 0x07, 0xbe, 0x1c, 0xf5, 0xc9, 0x3d, 0x91, 0x45, 0xea, 0x3a, 0x45, 0x20, 0x92, 0xbe, 0x37, 0x43, 0x12, 0xbe, 0x9f, 0xe9, 0x91, 0x3e, 0x87, 0x3a, 0xde, 0xbd, 0xc0, 0x84, 0xb2, 0x3c, 0x43, 0x28, 0xa7, 0xbd, 0xc4, 0xc4, 0x69, 0xbe, 0x17, 0x10, 0xe1, 0xbe, 0xd8, 0x10, 0x8b, 0x3d, 0x88, 0x1f, 0x8a, 0xbd, 0xa2, 0xc5, 0x87, 0x3c, 0x6a, 0x72, 0x8b, 0x3c, 0xc9, 0x47, 0xe5, 0x3e, 0x96, 0xb7, 0x5e, 0x3e, 0xcd, 0x74, 0xc1, 0x3d, 0xc1, 0xb1, 0x3c, 0xbd, 0xa1, 0x75, 0x04, 0x3d, 0x97, 0x63, 0x8d, 0xbd, 0x10, 0x97, 0x1e, 0xbe, 0x88, 0xc6, 0x1e, 0x3d, 0x06, 0x57, 0x48, 0xbd, 0x21, 0x82, 0x48, 0xbe, 0x0e, 0xc3, 0x70, 0xbc, 0xa5, 0x27, 0x13, 0x3a, 0x01, 0x3f, 0x20, 0x3e, 0xff, 0xa8, 0x77, 0x3e, 0xc8, 0x3c, 0xf7, 0xbd, 0x81, 0xf3, 0xdd, 0xbd, 0x18, 0xa0, 0x81, 0xbe, 0x40, 0x48, 0x92, 0x3c, 0xe6, 0x1f, 0x98, 0xbc, 0x8b, 0x29, 0x5f, 0xbe, 0x87, 0xdd, 0x0e, 0x3f, 0x38, 0x12, 0xe1, 0xbd, 0x2a, 0x56, 0xb6, 0x3e, 0x57, 0x27, 0x2c, 0x3f, 0xf7, 0xd8, 0x98, 0xbe, 0x59, 0x1a, 0xa7, 0xbe, 0x5b, 0x86, 0xdd, 0xbe, 0x07, 0x3e, 0xa5, 0xbe, 0x09, 0xaf, 0x1f, 0xbe, 0x88, 0x73, 0xb6, 0xbe, 0xa8, 0x97, 0x7c, 0xbe, 0xb5, 0x02, 0x94, 0xbe, 0xec, 0x97, 0x83, 0xbe, 0x1b, 0xdd, 0xac, 0xbe, 0x51, 0x3a, 0x83, 0x3c, 0x48, 0x2b, 0x6f, 0xbd, 0x47, 0x11, 0xec, 0xbc, 0x13, 0x04, 0x44, 0xbe, 0xc7, 0x9a, 0x3f, 0x3d, 0xc3, 0x85, 0xa0, 0xbd, 0x5d, 0xf9, 0xe3, 0xbd, 0x02, 0x42, 0xa8, 0xbd, 0x79, 0x58, 0xaf, 0xbc, 0x08, 0xd7, 0x97, 0xbd, 0x34, 0x9c, 0x4e, 0xbe, 0xe8, 0xdb, 0xa2, 0x3c, 0xa9, 0x75, 0xb1, 0x3d, 0x8f, 0x09, 0xca, 0x3c, 0x7a, 0x54, 0x88, 0xbe, 0x9a, 0xdd, 0x51, 0xbe, 0xe8, 0xf9, 0x9e, 0x38, 0xd1, 0xca, 0x24, 0xbd, 0xac, 0xed, 0xa8, 0x3d, 0x00, 0xf1, 0x91, 0x3d, 0x20, 0x13, 0x48, 0xbc, 0x54, 0x53, 0x18, 0xbe, 0xfe, 0x75, 0xc0, 0xbd, 0xaa, 0x0e, 0x83, 0xbe, 0xdf, 0xd1, 0x97, 0xbe, 0x3e, 0x5c, 0x87, 0xbe, 0x03, 0xa3, 0x24, 0xbe, 0xc0, 0xb3, 0x6d, 0xbe, 0x06, 0x16, 0x42, 0xbe, 0x3b, 0xd2, 0x9b, 0xbd, 0x0c, 0x44, 0x33, 0xbd, 0x78, 0x16, 0x08, 0xbe, 0xf0, 0x42, 0xe1, 0xbc, 0xd0, 0x85, 0x73, 0xbc, 0x4d, 0xc8, 0x6a, 0x3d, 0x7a, 0x54, 0x5c, 0x3e, 0x62, 0x4d, 0x89, 0x3e, 0x43, 0x39, 0x3f, 0x3d, 0xa5, 0x71, 0x7b, 0x3d, 0x67, 0xee, 0x35, 0x3e, 0x01, 0x97, 0x03, 0x3e, 0xb5, 0xa1, 0x42, 0x3e, 0x83, 0xea, 0x1a, 0x3e, 0x98, 0xc3, 0x16, 0xbd, 0x16, 0x79, 0xe3, 0xbd, 0x68, 0x81, 0x13, 0x3e, 0xc7, 0x84, 0xfd, 0xbc, 0xa7, 0xc1, 0x47, 0xbe, 0x26, 0x12, 0xa1, 0xbd, 0x6b, 0x81, 0x19, 0xbe, 0x0b, 0xda, 0x41, 0xbe, 0xb1, 0x26, 0xd1, 0xbd, 0xc6, 0x85, 0xb5, 0x3d, 0x88, 0xd9, 0x3e, 0x3d, 0xc2, 0x92, 0xba, 0x3e, 0x8a, 0x55, 0xc9, 0x3e, 0x45, 0x5c, 0x49, 0x3e, 0xf7, 0xe4, 0x04, 0x3e, 0xcc, 0x4b, 0x69, 0x3d, 0x72, 0xb1, 0x09, 0x3d, 0xd0, 0x25, 0x93, 0x3d, 0x23, 0xcf, 0x41, 0x3d, 0xe4, 0x38, 0xa0, 0xbc, 0xc8, 0x0d, 0x2b, 0x3e, 0x52, 0xa9, 0x93, 0x3e, 0x2d, 0xd7, 0x85, 0x3c, 0xe5, 0xee, 0xf4, 0x3d, 0xae, 0xe6, 0x54, 0x3e, 0xfc, 0xc1, 0xee, 0x3e, 0x6c, 0x44, 0x0c, 0x3f, 0xdf, 0xf6, 0xac, 0x3e, 0x76, 0xf0, 0x5b, 0x3e, 0x43, 0x82, 0x1f, 0x3e, 0x3a, 0x3c, 0xeb, 0xbd, 0xe0, 0xe4, 0xe4, 0xbd, 0xff, 0xff, 0x08, 0xbd, 0xc1, 0x37, 0x0b, 0xbe, 0x33, 0x71, 0xc1, 0x3d, 0x3b, 0x16, 0x8d, 0x3d, 0xe5, 0x4d, 0x7d, 0xbd, 0x0c, 0x85, 0xc8, 0xbd, 0x3e, 0xfb, 0xed, 0xbc, 0x25, 0xad, 0x4d, 0xbd, 0x72, 0xd1, 0xb4, 0x3d, 0xf1, 0x3b, 0x59, 0x3d, 0x4b, 0xeb, 0x60, 0xbe, 0x77, 0xbd, 0xde, 0x3c, 0xa1, 0x1f, 0xce, 0xbd, 0x68, 0x51, 0x79, 0x3e, 0xe5, 0xca, 0xf1, 0x3d, 0x10, 0x8b, 0xcb, 0x3d, 0xaa, 0x8f, 0x54, 0x3d, 0x7d, 0xff, 0x88, 0x3e, 0x98, 0x48, 0x64, 0x3e, 0x91, 0xbe, 0xd4, 0x3d, 0x61, 0x0f, 0xc9, 0x3d, 0x8a, 0xac, 0x86, 0x3d, 0x24, 0x46, 0x2d, 0x3e, 0x5f, 0x76, 0x03, 0x3d, 0x48, 0x59, 0x85, 0x3e, 0x11, 0x37, 0x8f, 0x3d, 0x3d, 0x4c, 0x60, 0x3e, 0x46, 0xc4, 0x3b, 0x3e, 0x2a, 0x84, 0xc6, 0x3d, 0xf7, 0xa7, 0xa6, 0x3b, 0x76, 0x8c, 0x9b, 0x3d, 0xf9, 0x8d, 0x2c, 0x3d, 0xb3, 0x0e, 0xae, 0x3b, 0x40, 0xf2, 0x87, 0x3d, 0xb6, 0x7f, 0x35, 0x3d, 0x81, 0x46, 0x4e, 0xbd, 0x3c, 0xcb, 0x5f, 0xbd, 0x24, 0x8f, 0xac, 0xbd, 0xdd, 0x8d, 0xc9, 0x3d, 0xe6, 0xaa, 0x4e, 0x3d, 0xd0, 0xb8, 0x84, 0x3d, 0x46, 0x2b, 0x49, 0x3e, 0xfc, 0x14, 0x02, 0x3e, 0x1f, 0xc9, 0xb9, 0x3d, 0xd3, 0x3d, 0xab, 0x3c, 0x90, 0xd8, 0x43, 0x3e, 0x52, 0x74, 0xb5, 0x3d, 0xb3, 0x4b, 0xfd, 0x3d, 0x1d, 0x03, 0xc1, 0xbd, 0x2e, 0xbf, 0x44, 0xbe, 0x4a, 0x74, 0xa2, 0x3e, 0xd3, 0xdc, 0xcb, 0xbc, 0x7b, 0x49, 0x30, 0xbe, 0x5e, 0x09, 0x3a, 0x3e, 0x3e, 0x4c, 0x01, 0x3d, 0xdd, 0xc5, 0x25, 0x3d, 0x42, 0x89, 0xc3, 0x3e, 0x11, 0x15, 0xe6, 0xbb, 0x0f, 0xa9, 0x34, 0x3e, 0x6a, 0x85, 0xd8, 0xbd, 0x09, 0x51, 0x5f, 0x3e, 0xd6, 0xd2, 0x89, 0xbd, 0x8a, 0xeb, 0x52, 0x3d, 0x75, 0x65, 0xa8, 0xbd, 0x6e, 0x07, 0x2b, 0x3e, 0x61, 0x1b, 0x67, 0x3e, 0x5d, 0x5b, 0x23, 0x3e, 0x8b, 0xe2, 0x8b, 0xbd, 0x19, 0x4f, 0x20, 0x3f, 0xf7, 0x32, 0x24, 0xbe, 0xd1, 0x93, 0x59, 0xbc, 0x55, 0xc1, 0x20, 0x3b, 0xbe, 0xa4, 0x44, 0x3e, 0x8f, 0x2c, 0x6a, 0xbd, 0x5c, 0xe8, 0x01, 0x3f, 0x77, 0xec, 0x79, 0x3e, 0x52, 0xc9, 0x2d, 0xbe, 0x9b, 0x2c, 0x32, 0x3e, 0x06, 0x7f, 0x16, 0x3f, 0xd0, 0x23, 0x10, 0x3f, 0x46, 0xe1, 0xf9, 0x3d, 0xf1, 0xc4, 0xd2, 0x3e, 0xbd, 0x78, 0xcd, 0xbd, 0x34, 0x59, 0xe3, 0x3d, 0x82, 0x92, 0x53, 0xbc, 0x30, 0xc0, 0xee, 0x3d, 0xa7, 0x4b, 0xc3, 0xbd, 0x77, 0xb7, 0x8c, 0xbe, 0xe3, 0x6e, 0x9f, 0x3d, 0xac, 0x16, 0x20, 0xbe, 0x3a, 0xcf, 0xe4, 0x3b, 0x4b, 0xd8, 0xc3, 0x3e, 0x20, 0x37, 0xb4, 0x3d, 0xd2, 0xf6, 0xb1, 0x3e, 0xc7, 0x2d, 0xa7, 0x3e, 0x80, 0x8e, 0xac, 0xbd, 0xaa, 0x89, 0x25, 0x3c, 0x21, 0xd1, 0x91, 0x3e, 0x9d, 0x62, 0x15, 0xbf, 0x17, 0x3b, 0xb6, 0xbe, 0xc8, 0x62, 0x02, 0xbf, 0x49, 0xae, 0xb8, 0xbe, 0x84, 0x69, 0xaa, 0x3e, 0xce, 0x8a, 0xc5, 0x3e, 0xe0, 0xba, 0xc1, 0x3d, 0x4e, 0x53, 0x23, 0xbe, 0x1f, 0xbe, 0x95, 0xbd, 0xb5, 0x54, 0xaa, 0x3a, 0x7b, 0x42, 0x17, 0x3d, 0xf7, 0x39, 0x0a, 0x3e, 0xaf, 0x0a, 0x47, 0xbd, 0x6d, 0xbc, 0x39, 0x3d, 0x92, 0x68, 0x72, 0xbe, 0x3b, 0xc8, 0xe0, 0xbd, 0xe2, 0xbd, 0xb6, 0xbd, 0x05, 0xca, 0x99, 0x3d, 0x49, 0x37, 0x73, 0xbb, 0x60, 0x90, 0xb6, 0xbc, 0x1d, 0xb0, 0xa6, 0x3d, 0xb2, 0x79, 0x3c, 0xbd, 0x9d, 0xe1, 0x3d, 0x3e, 0xa9, 0x63, 0x68, 0x3e, 0x13, 0x12, 0x8e, 0x3e, 0x87, 0xb9, 0x82, 0x3e, 0x44, 0xbf, 0x0d, 0x3f, 0x46, 0x6e, 0x00, 0x3f, 0x9b, 0xd0, 0xf3, 0x3e, 0xab, 0x1f, 0xfd, 0x3e, 0x7e, 0x17, 0x9a, 0x3e, 0x76, 0x2c, 0x6d, 0xbd, 0xf8, 0x80, 0x0a, 0x3d, 0x81, 0xef, 0x4f, 0xbe, 0xf6, 0xf3, 0x0e, 0xbe, 0x7d, 0x20, 0x97, 0xbe, 0xb8, 0xa8, 0x2b, 0x3c, 0xe9, 0x19, 0x78, 0xbd, 0xae, 0xff, 0x2d, 0x3e, 0x89, 0x13, 0xbb, 0x3d, 0x37, 0x67, 0x2b, 0x3e, 0xce, 0x91, 0x8c, 0xbd, 0xe9, 0x50, 0xfa, 0x3d, 0x99, 0x8f, 0x4e, 0xbd, 0x26, 0x7e, 0x9b, 0xbe, 0x2a, 0x4d, 0xde, 0xbd, 0x67, 0xfa, 0x66, 0xbe, 0x1c, 0x78, 0xd0, 0x3c, 0x09, 0xe4, 0x21, 0xbe, 0x8c, 0xa3, 0x44, 0xbe, 0xe0, 0x82, 0x32, 0x3e, 0x6c, 0x94, 0xb6, 0xbd, 0x8d, 0x56, 0x51, 0x3e, 0x54, 0x29, 0x82, 0x3d, 0x3c, 0xe3, 0x58, 0xbe, 0x6b, 0x21, 0xfa, 0xbc, 0x32, 0x2a, 0xe7, 0x38, 0x5d, 0x44, 0xe4, 0xbc, 0x07, 0x1e, 0xf6, 0x3b, 0xb9, 0xb1, 0x1f, 0xbe, 0x9e, 0xdf, 0x36, 0x3d, 0xc0, 0xf3, 0x4f, 0x3e, 0x66, 0x05, 0xb4, 0x3c, 0xe6, 0xab, 0xac, 0xbc, 0x07, 0x7a, 0xb1, 0xbc, 0x62, 0x1f, 0xd2, 0x3c, 0x81, 0x19, 0x92, 0x3d, 0x9c, 0xde, 0xcb, 0xbd, 0x01, 0xe1, 0x80, 0xba, 0xa9, 0x92, 0x01, 0x3e, 0x2f, 0xcd, 0x7a, 0x3e, 0x41, 0x43, 0x3b, 0xbd, 0xf3, 0x3a, 0x96, 0x3d, 0x19, 0x74, 0xb3, 0x3d, 0x88, 0x44, 0xb2, 0x3d, 0x1e, 0x82, 0x5c, 0xbd, 0xaa, 0xe7, 0x50, 0x3d, 0xc8, 0x4f, 0x67, 0x3d, 0x7e, 0xc7, 0x07, 0x3e, 0xe9, 0xfe, 0xca, 0xbd, 0x5f, 0xcf, 0x62, 0xbd, 0x0c, 0x35, 0xe2, 0xbd, 0x69, 0x38, 0x6e, 0x3e, 0x17, 0xd0, 0xdc, 0xbc, 0x5a, 0xde, 0x2a, 0x3d, 0x54, 0x1a, 0xef, 0xbb, 0xed, 0xa6, 0xa7, 0xbd, 0x20, 0x19, 0xfa, 0xbc, 0x73, 0x9d, 0x72, 0xbd, 0x25, 0x0b, 0x76, 0x3c, 0xe5, 0xcc, 0x15, 0xbe, 0x21, 0xcf, 0xc8, 0x3d, 0xae, 0xc1, 0x36, 0xbd, 0x10, 0x43, 0x73, 0x3b, 0xf1, 0x0f, 0x8c, 0x3d, 0x61, 0xef, 0x03, 0xbe, 0xbd, 0x97, 0xfa, 0xbd, 0x8f, 0x62, 0xaf, 0x3d, 0x49, 0xb1, 0x48, 0xbd, 0x99, 0x2a, 0x1c, 0xbe, 0x41, 0x5f, 0xc8, 0xbc, 0x44, 0x66, 0xa0, 0x3c, 0x57, 0x15, 0x02, 0xbd, 0x48, 0x3c, 0xc3, 0x3b, 0x9b, 0xbb, 0xc4, 0xbd, 0xd6, 0xf6, 0xc5, 0xbd, 0x2e, 0x60, 0xed, 0x3d, 0x24, 0xe6, 0x30, 0xbd, 0x45, 0x8e, 0xaa, 0xbc, 0x5f, 0x8e, 0xfc, 0x3c, 0x53, 0x67, 0x93, 0x3e, 0xa6, 0x9d, 0xd0, 0x3c, 0x40, 0x32, 0x6b, 0x3e, 0x95, 0xfd, 0x06, 0xbe, 0x85, 0x0f, 0x65, 0xbc, 0x73, 0x8e, 0xd3, 0x3d, 0x6b, 0xc0, 0x01, 0x3c, 0xfe, 0x91, 0x46, 0x3c, 0x52, 0x8d, 0xb5, 0x3d, 0x42, 0x53, 0x9a, 0x3d, 0x0d, 0x37, 0x27, 0x3c, 0x24, 0xbf, 0x0e, 0xbd, 0x63, 0xe2, 0xa3, 0x3d, 0x25, 0xfb, 0xab, 0xbc, 0xe7, 0xb0, 0x5a, 0x3d, 0xdd, 0x9e, 0x40, 0xbd, 0x5a, 0x5b, 0x4c, 0xbd, 0x26, 0x96, 0x3c, 0xbe, 0xaa, 0x5d, 0x64, 0xbc, 0xdd, 0x8f, 0xa1, 0xbd, 0xd7, 0xa5, 0x80, 0xbe, 0x39, 0x6a, 0x57, 0x3d, 0xf7, 0x27, 0xa0, 0x3c, 0xeb, 0xc5, 0xa1, 0x3c, 0x76, 0x1c, 0xce, 0x3d, 0xf6, 0x54, 0x2d, 0xbd, 0xc9, 0x00, 0xd3, 0xbc, 0xb0, 0x77, 0x20, 0xbb, 0xca, 0x1e, 0x11, 0x3c, 0xd9, 0x95, 0xa4, 0xbd, 0xb1, 0x54, 0xef, 0x3c, 0xf6, 0xfe, 0xbc, 0x3e, 0xf6, 0xad, 0x89, 0xbd, 0x14, 0x80, 0x2f, 0x3d, 0x7d, 0xe6, 0xe9, 0x3c, 0xed, 0xd0, 0xf0, 0xbd, 0x04, 0xe9, 0x13, 0x3e, 0x36, 0x2d, 0x88, 0xbe, 0x98, 0x55, 0xf8, 0x3d, 0xca, 0x52, 0x39, 0xbd, 0xf7, 0x99, 0xbc, 0x3e, 0xc1, 0x5c, 0x00, 0xbd, 0xa4, 0xc6, 0x2d, 0x3d, 0x9c, 0xf4, 0x6e, 0x3c, 0xc0, 0xe6, 0xa9, 0x3e, 0xb3, 0x90, 0x86, 0x3d, 0x2f, 0x89, 0xd2, 0x3e, 0x7b, 0xab, 0x99, 0xbe, 0x40, 0x0c, 0xbc, 0x3e, 0x2c, 0xa8, 0xa9, 0x3e, 0xf4, 0xd5, 0xed, 0x3d, 0x55, 0xe3, 0x39, 0x3e, 0x41, 0xda, 0xb7, 0x3e, 0x03, 0x3f, 0x59, 0xbe, 0x37, 0x56, 0x73, 0x3e, 0xf0, 0xbc, 0xd4, 0x3e, 0xfc, 0x9b, 0x48, 0xbc, 0xde, 0xd2, 0x3d, 0xbf, 0x59, 0xce, 0x96, 0xbe, 0xc4, 0xcb, 0x70, 0x3d, 0x8c, 0xe4, 0x74, 0xbe, 0xec, 0x8d, 0x17, 0x3e, 0xd8, 0xa5, 0x49, 0x3e, 0x5a, 0xf3, 0x91, 0x3e, 0x77, 0x1d, 0xd9, 0x3d, 0x9c, 0x09, 0x4a, 0x3d, 0xe6, 0xa8, 0xbc, 0x3e, 0xac, 0x52, 0x8e, 0xbb, 0x62, 0x63, 0x80, 0xbe, 0x00, 0x52, 0xad, 0xbe, 0x42, 0xb2, 0x84, 0xbe, 0xa9, 0x67, 0xdd, 0x3d, 0x7c, 0xa8, 0x0a, 0xbe, 0xdc, 0x72, 0x91, 0xbd, 0x90, 0xca, 0xdf, 0x3c, 0xd5, 0x78, 0xd8, 0x3e, 0xc7, 0xba, 0x4a, 0x3f, 0xb9, 0xbd, 0x1d, 0xbf, 0xc5, 0x51, 0x8d, 0xbe, 0x6c, 0x63, 0xdb, 0x3e, 0xe2, 0x5d, 0xf8, 0xbd, 0xd9, 0xa5, 0xaf, 0x3d, 0x56, 0xfd, 0x20, 0x3c, 0xb9, 0x92, 0x8c, 0xbc, 0xc0, 0x93, 0xb1, 0xbe, 0x8a, 0x09, 0x07, 0xbe, 0xbe, 0x65, 0x5d, 0x3d, 0x10, 0xbe, 0x7c, 0xbd, 0x54, 0xaf, 0x03, 0x3d, 0x8b, 0x3a, 0xb2, 0xbd, 0x5f, 0x09, 0xff, 0xbd, 0x78, 0xe8, 0x04, 0x3e, 0x89, 0x20, 0xd5, 0xbc, 0x09, 0x60, 0x80, 0xbd, 0x61, 0xb2, 0x9b, 0xbd, 0x75, 0x2d, 0x21, 0xbe, 0x3a, 0x3e, 0x9a, 0xbc, 0xb6, 0x87, 0xf1, 0xbd, 0xd2, 0x7d, 0x82, 0xbe, 0xde, 0x1b, 0x53, 0xbe, 0xa2, 0x83, 0x85, 0xbd, 0xfd, 0xf7, 0x26, 0xbe, 0x85, 0x0d, 0x72, 0xbe, 0x75, 0x00, 0x00, 0x3d, 0x1f, 0x50, 0x4f, 0xbe, 0x8e, 0x25, 0x22, 0xbe, 0xe4, 0x22, 0xab, 0x3c, 0x87, 0xae, 0x1c, 0xbe, 0x66, 0x83, 0xe0, 0x3b, 0x62, 0x71, 0x21, 0x3e, 0x90, 0x87, 0xfa, 0x3c, 0x8e, 0x9c, 0x7f, 0x3e, 0x66, 0x5f, 0x93, 0xbd, 0x85, 0xb4, 0x4c, 0x3e, 0x68, 0xdd, 0x47, 0x3e, 0x3c, 0x5e, 0xd7, 0xbc, 0x70, 0xc7, 0x8e, 0x3e, 0xbd, 0x89, 0xed, 0x3d, 0xaa, 0xbc, 0x6d, 0xbd, 0xf2, 0x9c, 0x97, 0x3c, 0x6b, 0x12, 0x6d, 0xbd, 0x82, 0x6c, 0x58, 0x3c, 0xe9, 0xbd, 0x46, 0xbe, 0x10, 0xce, 0x04, 0x3e, 0x0d, 0xe8, 0x11, 0xbd, 0x68, 0xfe, 0xbe, 0xbd, 0xcd, 0x5d, 0x67, 0xbe, 0x81, 0x99, 0x40, 0xbe, 0x0d, 0x0f, 0xd1, 0xbd, 0x65, 0x39, 0xf6, 0xbd, 0xdb, 0xb9, 0xc9, 0x3c, 0x59, 0x39, 0x76, 0x3e, 0x4c, 0xb4, 0x5e, 0xbc, 0xb7, 0xb4, 0x9f, 0x3e, 0xc6, 0x8d, 0x70, 0x3e, 0x7b, 0x24, 0x85, 0x3d, 0xa3, 0x61, 0xf2, 0x3d, 0xa5, 0x8b, 0xa5, 0xba, 0x20, 0x4c, 0x02, 0x3e, 0xca, 0xbd, 0xe2, 0xbc, 0x89, 0x11, 0x7e, 0xbd, 0xcb, 0x25, 0xaf, 0x3d, 0x40, 0x67, 0x0e, 0xbe, 0x3e, 0xe4, 0x15, 0xbe, 0xbe, 0x16, 0x65, 0xbe, 0x79, 0x48, 0x04, 0x3d, 0x79, 0xb5, 0x06, 0x3d, 0x2a, 0xa9, 0x8a, 0xbe, 0x80, 0xe8, 0x1f, 0xbd, 0x80, 0xb3, 0xeb, 0xbd, 0x15, 0x07, 0x4a, 0xbe, 0x86, 0xe6, 0x5a, 0xbd, 0x48, 0xaf, 0x2f, 0xbc, 0x7c, 0x0c, 0xfe, 0xbd, 0x4b, 0xcb, 0x5f, 0xbe, 0x17, 0x57, 0x4a, 0xbd, 0x06, 0x2f, 0xb2, 0x3e, 0x4a, 0x61, 0x5d, 0x3d, 0x9c, 0x3c, 0x9f, 0x3e, 0x28, 0x15, 0x99, 0x3c, 0x9b, 0x2d, 0x23, 0xbe, 0x22, 0x34, 0x0c, 0x3e, 0x70, 0xe8, 0x11, 0xbc, 0xa4, 0x7b, 0xe9, 0xbb, 0x45, 0x06, 0x30, 0x3d, 0x70, 0xbc, 0x67, 0xbe, 0xff, 0xb0, 0xba, 0x3c, 0xd8, 0x98, 0x31, 0xbe, 0xa7, 0xaf, 0xec, 0xbc, 0x3e, 0xc7, 0xae, 0x3d, 0xdb, 0x9c, 0x77, 0xbe, 0xfa, 0x43, 0xb1, 0xbd, 0xab, 0x6b, 0xdc, 0xbd, 0x92, 0xa6, 0x8d, 0xbe, 0xb0, 0x89, 0x37, 0xbe, 0x8d, 0x4b, 0x3a, 0xbe, 0xdf, 0x68, 0x34, 0xbe, 0x0f, 0xa3, 0x98, 0xbe, 0xde, 0x89, 0xd0, 0x3c, 0x81, 0x1c, 0xa4, 0xbc, 0x07, 0x19, 0x95, 0x3c, 0x28, 0x60, 0x4e, 0xbe, 0x1a, 0xc1, 0x3c, 0xbe, 0x56, 0x71, 0xfa, 0x3c, 0x1c, 0x38, 0x8f, 0x3d, 0xf3, 0x44, 0xd2, 0x3d, 0x0b, 0xc1, 0xc3, 0x3b, 0x10, 0xbd, 0x74, 0xbd, 0x1e, 0x61, 0xf7, 0xbc, 0xf5, 0x77, 0x76, 0xbb, 0x5f, 0x26, 0x88, 0x3e, 0x85, 0xba, 0xfb, 0x3c, 0xb2, 0x3b, 0x13, 0x3e, 0x1e, 0x9c, 0x82, 0xbd, 0x85, 0x21, 0x3b, 0x3e, 0x8e, 0x9c, 0x05, 0x3d, 0x26, 0xaa, 0x15, 0x3e, 0x73, 0xfd, 0xf0, 0x3d, 0x4f, 0x9a, 0x9b, 0x3d, 0xac, 0x34, 0x37, 0x3e, 0x58, 0xa9, 0x70, 0x3e, 0xfb, 0x67, 0x81, 0x3e, 0x59, 0x5b, 0x5b, 0x3e, 0xcf, 0xf6, 0xbc, 0x3e, 0x03, 0x53, 0x4d, 0x3e, 0x24, 0xae, 0x5f, 0xbc, 0xd2, 0x1f, 0x40, 0x3c, 0x8a, 0xfc, 0x80, 0x3e, 0xc1, 0x3d, 0x7e, 0x3e, 0xb5, 0xc1, 0x13, 0xbe, 0x10, 0x09, 0x5d, 0xbd, 0xac, 0xa0, 0x00, 0x3e, 0x7d, 0x84, 0x94, 0xbd, 0xcc, 0x37, 0x10, 0xbe, 0x9f, 0x34, 0xc3, 0x3d, 0xcf, 0xc4, 0x19, 0x3d, 0x3e, 0xa9, 0xae, 0xbd, 0x5f, 0x30, 0x9d, 0xbc, 0xcf, 0xbf, 0x05, 0x3e, 0xa4, 0x64, 0x77, 0xbe, 0x3c, 0x41, 0x84, 0x3d, 0x0c, 0x79, 0xe0, 0xbd, 0x8d, 0x6c, 0x38, 0xbe, 0x66, 0x3c, 0x75, 0x3d, 0x47, 0xad, 0x8e, 0x3d, 0x9d, 0x44, 0xfd, 0x3d, 0x71, 0xde, 0xe1, 0xbc, 0x64, 0x5a, 0xcb, 0xbd, 0xef, 0x9b, 0x6e, 0xbc, 0x43, 0x5c, 0xe5, 0xbd, 0xd7, 0xd8, 0xbf, 0xbe, 0x3a, 0x7d, 0x1a, 0xbf, 0x1a, 0x8d, 0x26, 0xbf, 0x63, 0xcc, 0x15, 0xbe, 0x4b, 0xa0, 0x83, 0xbe, 0xfd, 0xe5, 0x4e, 0x3d, 0x71, 0x76, 0x20, 0x3e, 0x5e, 0xc0, 0x12, 0xbf, 0x71, 0xbe, 0xb6, 0xbd, 0xb1, 0xa0, 0x07, 0xbe, 0x30, 0x54, 0xdc, 0xbe, 0x98, 0x5f, 0x87, 0x3d, 0x27, 0xbe, 0x39, 0x3e, 0xaf, 0x1c, 0x84, 0x3e, 0x92, 0xac, 0xbc, 0x3e, 0xd8, 0x77, 0xf5, 0x3e, 0x88, 0xb8, 0x32, 0xbd, 0xea, 0x84, 0xfb, 0x3d, 0xdc, 0x8c, 0x10, 0x3f, 0x5c, 0xdf, 0xa9, 0x3d, 0x85, 0x98, 0x88, 0x3e, 0xe1, 0x16, 0xde, 0x3e, 0xe5, 0x62, 0x6a, 0x3f, 0x88, 0x2d, 0x14, 0x3f, 0xfe, 0xf0, 0xe7, 0x3e, 0xb0, 0x00, 0x31, 0x3f, 0x24, 0x25, 0x09, 0x3f, 0xba, 0x5f, 0x81, 0x3e, 0xed, 0x65, 0x29, 0xbe, 0x97, 0x05, 0xbc, 0xbd, 0x2a, 0x9d, 0x12, 0xbe, 0x80, 0xbe, 0xd7, 0x3a, 0x62, 0xff, 0xff, 0xff, 0x04, 0x00, 0x00, 0x00, 0x3c, 0x00, 0x00, 0x00, 0xa8, 0xaf, 0xa5, 0x3d, 0x4b, 0x2c, 0xe5, 0xbc, 0xec, 0xf4, 0x62, 0x3e, 0x77, 0x3a, 0x90, 0x3e, 0x3d, 0x13, 0xd8, 0xbd, 0x17, 0xe8, 0x20, 0xbe, 0x0c, 0x4a, 0x85, 0xbd, 0x57, 0xad, 0x76, 0x3e, 0x63, 0xc4, 0xd9, 0xbb, 0x3a, 0x38, 0x77, 0xbd, 0x7a, 0x32, 0x98, 0x3d, 0xd7, 0x72, 0x4a, 0x3e, 0xd9, 0x2d, 0x0b, 0xba, 0xf2, 0x95, 0x46, 0x3d, 0x96, 0x2b, 0xa0, 0x3e, 0xaa, 0xff, 0xff, 0xff, 0x04, 0x00, 0x00, 0x00, 0x28, 0x00, 0x00, 0x00, 0xaa, 0x21, 0x1a, 0x3e, 0x08, 0xc7, 0xe4, 0x3d, 0x84, 0x6e, 0x54, 0x3e, 0xf5, 0xb5, 0x3f, 0xbd, 0xc4, 0x3f, 0xae, 0xbd, 0xdd, 0x0c, 0x80, 0xbd, 0x32, 0xdc, 0x3c, 0x3c, 0x94, 0xc4, 0x8a, 0xbc, 0xd3, 0x0b, 0x95, 0x3e, 0x93, 0xd0, 0x5d, 0x3e, 0xde, 0xff, 0xff, 0xff, 0x04, 0x00, 0x00, 0x00, 0x14, 0x00, 0x00, 0x00, 0x0d, 0x50, 0x19, 0x3c, 0x6f, 0x5f, 0x9b, 0x3c, 0xde, 0xe7, 0x80, 0x3e, 0x0f, 0x8b, 0x74, 0x3e, 0xce, 0x5d, 0x82, 0x3e, 0x00, 0x00, 0x06, 0x00, 0x08, 0x00, 0x04, 0x00, 0x06, 0x00, 0x00, 0x00, 0x04, 0x00, 0x00, 0x00, 0x04, 0x00, 0x00, 0x00, 0x75, 0x14, 0x81, 0x3e, 0xec, 0xf8, 0xff, 0xff, 0xf0, 0xf8, 0xff, 0xff, 0x0f, 0x00, 0x00, 0x00, 0x4d, 0x4c, 0x49, 0x52, 0x20, 0x43, 0x6f, 0x6e, 0x76, 0x65, 0x72, 0x74, 0x65, 0x64, 0x2e, 0x00, 0x01, 0x00, 0x00, 0x00, 0x14, 0x00, 0x00, 0x00, 0x00, 0x00, 0x0e, 0x00, 0x18, 0x00, 0x14, 0x00, 0x10, 0x00, 0x0c, 0x00, 0x08, 0x00, 0x04, 0x00, 0x0e, 0x00, 0x00, 0x00, 0x14, 0x00, 0x00, 0x00, 0x1c, 0x00, 0x00, 0x00, 0x40, 0x01, 0x00, 0x00, 0x44, 0x01, 0x00, 0x00, 0x48, 0x01, 0x00, 0x00, 0x04, 0x00, 0x00, 0x00, 0x6d, 0x61, 0x69, 0x6e, 0x00, 0x00, 0x00, 0x00, 0x05, 0x00, 0x00, 0x00, 0xe8, 0x00, 0x00, 0x00, 0xa0, 0x00, 0x00, 0x00, 0x68, 0x00, 0x00, 0x00, 0x34, 0x00, 0x00, 0x00, 0x10, 0x00, 0x00, 0x00, 0x00, 0x00, 0x0a, 0x00, 0x10, 0x00, 0x0c, 0x00, 0x08, 0x00, 0x04, 0x00, 0x0a, 0x00, 0x00, 0x00, 0x0c, 0x00, 0x00, 0x00, 0x10, 0x00, 0x00, 0x00, 0x01, 0x00, 0x00, 0x00, 0x01, 0x00, 0x00, 0x00, 0x0d, 0x00, 0x00, 0x00, 0x01, 0x00, 0x00, 0x00, 0x0c, 0x00, 0x00, 0x00, 0x66, 0xff, 0xff, 0xff, 0x10, 0x00, 0x00, 0x00, 0x00, 0x00, 0x00, 0x08, 0x0c, 0x00, 0x00, 0x00, 0x10, 0x00, 0x00, 0x00, 0x9c, 0xf9, 0xff, 0xff, 0x01, 0x00, 0x00, 0x00, 0x0c, 0x00, 0x00, 0x00, 0x03, 0x00, 0x00, 0x00, 0x0b, 0x00, 0x00, 0x00, 0x08, 0x00, 0x00, 0x00, 0x01, 0x00, 0x00, 0x00, 0x96, 0xff, 0xff, 0xff, 0x10, 0x00, 0x00, 0x00, 0x00, 0x00, 0x00, 0x08, 0x10, 0x00, 0x00, 0x00, 0x14, 0x00, 0x00, 0x00, 0x86, 0xff, 0xff, 0xff, 0x00, 0x00, 0x00, 0x01, 0x01, 0x00, 0x00, 0x00, 0x0b, 0x00, 0x00, 0x00, 0x03, 0x00, 0x00, 0x00, 0x0a, 0x00, 0x00, 0x00, 0x07, 0x00, 0x00, 0x00, 0x02, 0x00, 0x00, 0x00, 0xca, 0xff, 0xff, 0xff, 0x10, 0x00, 0x00, 0x00, 0x00, 0x00, 0x00, 0x08, 0x10, 0x00, 0x00, 0x00, 0x14, 0x00, 0x00, 0x00, 0xba, 0xff, 0xff, 0xff, 0x00, 0x00, 0x00, 0x01, 0x01, 0x00, 0x00, 0x00, 0x0a, 0x00, 0x00, 0x00, 0x03, 0x00, 0x00, 0x00, 0x09, 0x00, 0x00, 0x00, 0x06, 0x00, 0x00, 0x00, 0x03, 0x00, 0x00, 0x00, 0x00, 0x00, 0x0e, 0x00, 0x16, 0x00, 0x00, 0x00, 0x10, 0x00, 0x0c, 0x00, 0x0b, 0x00, 0x04, 0x00, 0x0e, 0x00, 0x00, 0x00, 0x18, 0x00, 0x00, 0x00, 0x00, 0x00, 0x00, 0x08, 0x18, 0x00, 0x00, 0x00, 0x1c, 0x00, 0x00, 0x00, 0x00, 0x00, 0x06, 0x00, 0x08, 0x00, 0x07, 0x00, 0x06, 0x00, 0x00, 0x00, 0x00, 0x00, 0x00, 0x01, 0x01, 0x00, 0x00, 0x00, 0x09, 0x00, 0x00, 0x00, 0x03, 0x00, 0x00, 0x00, 0x00, 0x00, 0x00, 0x00, 0x05, 0x00, 0x00, 0x00, 0x04, 0x00, 0x00, 0x00, 0x01, 0x00, 0x00, 0x00, 0x0d, 0x00, 0x00, 0x00, 0x01, 0x00, 0x00, 0x00, 0x00, 0x00, 0x00, 0x00, 0x0e, 0x00, 0x00, 0x00, 0x58, 0x05, 0x00, 0x00, 0xe8, 0x04, 0x00, 0x00, 0x78, 0x04, 0x00, 0x00, 0x20, 0x04, 0x00, 0x00, 0xc8, 0x03, 0x00, 0x00, 0x7c, 0x03, 0x00, 0x00, 0x30, 0x03, 0x00, 0x00, 0xe4, 0x02, 0x00, 0x00, 0x98, 0x02, 0x00, 0x00, 0x04, 0x02, 0x00, 0x00, 0x70, 0x01, 0x00, 0x00, 0xdc, 0x00, 0x00, 0x00, 0x60, 0x00, 0x00, 0x00, 0x04, 0x00, 0x00, 0x00, 0xf6, 0xfa, 0xff, 0xff, 0x00, 0x00, 0x00, 0x01, 0x14, 0x00, 0x00, 0x00, 0x1c, 0x00, 0x00, 0x00, 0x1c, 0x00, 0x00, 0x00, 0x0e, 0x00, 0x00, 0x00, 0x34, 0x00, 0x00, 0x00, 0x02, 0x00, 0x00, 0x00, 0xff, 0xff, 0xff, 0xff, 0x01, 0x00, 0x00, 0x00, 0xe0, 0xfa, 0xff, 0xff, 0x19, 0x00, 0x00, 0x00, 0x53, 0x74, 0x61, 0x74, 0x65, 0x66, 0x75, 0x6c, 0x50, 0x61, 0x72, 0x74, 0x69, 0x74, 0x69, 0x6f, 0x6e, 0x65, 0x64, 0x43, 0x61, 0x6c, 0x6c, 0x3a, 0x30, 0x00, 0x00, 0x00, 0x02, 0x00, 0x00, 0x00, 0x01, 0x00, 0x00, 0x00, 0x01, 0x00, 0x00, 0x00, 0x4e, 0xfb, 0xff, 0xff, 0x00, 0x00, 0x00, 0x01, 0x14, 0x00, 0x00, 0x00, 0x1c, 0x00, 0x00, 0x00, 0x1c, 0x00, 0x00, 0x00, 0x0d, 0x00, 0x00, 0x00, 0x54, 0x00, 0x00, 0x00, 0x02, 0x00, 0x00, 0x00, 0xff, 0xff, 0xff, 0xff, 0x01, 0x00, 0x00, 0x00, 0x38, 0xfb, 0xff, 0xff, 0x38, 0x00, 0x00, 0x00, 0x73, 0x65, 0x71, 0x75, 0x65, 0x6e, 0x74, 0x69, 0x61, 0x6c, 0x5f, 0x31, 0x2f, 0x64, 0x65, 0x6e, 0x73, 0x65, 0x5f, 0x37, 0x2f, 0x4d, 0x61, 0x74, 0x4d, 0x75, 0x6c, 0x3b, 0x73, 0x65, 0x71, 0x75, 0x65, 0x6e, 0x74, 0x69, 0x61, 0x6c, 0x5f, 0x31, 0x2f, 0x64, 0x65, 0x6e, 0x73, 0x65, 0x5f, 0x37, 0x2f, 0x42, 0x69, 0x61, 0x73, 0x41, 0x64, 0x64, 0x00, 0x00, 0x00, 0x00, 0x02, 0x00, 0x00, 0x00, 0x01, 0x00, 0x00, 0x00, 0x01, 0x00, 0x00, 0x00, 0xc6, 0xfb, 0xff, 0xff, 0x00, 0x00, 0x00, 0x01, 0x14, 0x00, 0x00, 0x00, 0x1c, 0x00, 0x00, 0x00, 0x1c, 0x00, 0x00, 0x00, 0x0c, 0x00, 0x00, 0x00, 0x6c, 0x00, 0x00, 0x00, 0x02, 0x00, 0x00, 0x00, 0xff, 0xff, 0xff, 0xff, 0x05, 0x00, 0x00, 0x00, 0xb0, 0xfb, 0xff, 0xff, 0x52, 0x00, 0x00, 0x00, 0x73, 0x65, 0x71, 0x75, 0x65, 0x6e, 0x74, 0x69, 0x61, 0x6c, 0x5f, 0x31, 0x2f, 0x64, 0x65, 0x6e, 0x73, 0x65, 0x5f, 0x36, 0x2f, 0x4d, 0x61, 0x74, 0x4d, 0x75, 0x6c, 0x3b, 0x73, 0x65, 0x71, 0x75, 0x65, 0x6e, 0x74, 0x69, 0x61, 0x6c, 0x5f, 0x31, 0x2f, 0x64, 0x65, 0x6e, 0x73, 0x65, 0x5f, 0x36, 0x2f, 0x52, 0x65, 0x6c, 0x75, 0x3b, 0x73, 0x65, 0x71, 0x75, 0x65, 0x6e, 0x74, 0x69, 0x61, 0x6c, 0x5f, 0x31, 0x2f, 0x64, 0x65, 0x6e, 0x73, 0x65, 0x5f, 0x36, 0x2f, 0x42, 0x69, 0x61, 0x73, 0x41, 0x64, 0x64, 0x00, 0x00, 0x02, 0x00, 0x00, 0x00, 0x01, 0x00, 0x00, 0x00, 0x05, 0x00, 0x00, 0x00, 0x56, 0xfc, 0xff, 0xff, 0x00, 0x00, 0x00, 0x01, 0x14, 0x00, 0x00, 0x00, 0x1c, 0x00, 0x00, 0x00, 0x1c, 0x00, 0x00, 0x00, 0x0b, 0x00, 0x00, 0x00, 0x6c, 0x00, 0x00, 0x00, 0x02, 0x00, 0x00, 0x00, 0xff, 0xff, 0xff, 0xff, 0x0a, 0x00, 0x00, 0x00, 0x40, 0xfc, 0xff, 0xff, 0x52, 0x00, 0x00, 0x00, 0x73, 0x65, 0x71, 0x75, 0x65, 0x6e, 0x74, 0x69, 0x61, 0x6c, 0x5f, 0x31, 0x2f, 0x64, 0x65, 0x6e, 0x73, 0x65, 0x5f, 0x35, 0x2f, 0x4d, 0x61, 0x74, 0x4d, 0x75, 0x6c, 0x3b, 0x73, 0x65, 0x71, 0x75, 0x65, 0x6e, 0x74, 0x69, 0x61, 0x6c, 0x5f, 0x31, 0x2f, 0x64, 0x65, 0x6e, 0x73, 0x65, 0x5f, 0x35, 0x2f, 0x52, 0x65, 0x6c, 0x75, 0x3b, 0x73, 0x65, 0x71, 0x75, 0x65, 0x6e, 0x74, 0x69, 0x61, 0x6c, 0x5f, 0x31, 0x2f, 0x64, 0x65, 0x6e, 0x73, 0x65, 0x5f, 0x35, 0x2f, 0x42, 0x69, 0x61, 0x73, 0x41, 0x64, 0x64, 0x00, 0x00, 0x02, 0x00, 0x00, 0x00, 0x01, 0x00, 0x00, 0x00, 0x0a, 0x00, 0x00, 0x00, 0xe6, 0xfc, 0xff, 0xff, 0x00, 0x00, 0x00, 0x01, 0x14, 0x00, 0x00, 0x00, 0x1c, 0x00, 0x00, 0x00, 0x1c, 0x00, 0x00, 0x00, 0x0a, 0x00, 0x00, 0x00, 0x6c, 0x00, 0x00, 0x00, 0x02, 0x00, 0x00, 0x00, 0xff, 0xff, 0xff, 0xff, 0x0f, 0x00, 0x00, 0x00, 0xd0, 0xfc, 0xff, 0xff, 0x52, 0x00, 0x00, 0x00, 0x73, 0x65, 0x71, 0x75, 0x65, 0x6e, 0x74, 0x69, 0x61, 0x6c, 0x5f, 0x31, 0x2f, 0x64, 0x65, 0x6e, 0x73, 0x65, 0x5f, 0x34, 0x2f, 0x4d, 0x61, 0x74, 0x4d, 0x75, 0x6c, 0x3b, 0x73, 0x65, 0x71, 0x75, 0x65, 0x6e, 0x74, 0x69, 0x61, 0x6c, 0x5f, 0x31, 0x2f, 0x64, 0x65, 0x6e, 0x73, 0x65, 0x5f, 0x34, 0x2f, 0x52, 0x65, 0x6c, 0x75, 0x3b, 0x73, 0x65, 0x71, 0x75, 0x65, 0x6e, 0x74, 0x69, 0x61, 0x6c, 0x5f, 0x31, 0x2f, 0x64, 0x65, 0x6e, 0x73, 0x65, 0x5f, 0x34, 0x2f, 0x42, 0x69, 0x61, 0x73, 0x41, 0x64, 0x64, 0x00, 0x00, 0x02, 0x00, 0x00, 0x00, 0x01, 0x00, 0x00, 0x00, 0x0f, 0x00, 0x00, 0x00, 0xe2, 0xfd, 0xff, 0xff, 0x00, 0x00, 0x00, 0x01, 0x10, 0x00, 0x00, 0x00, 0x10, 0x00, 0x00, 0x00, 0x09, 0x00, 0x00, 0x00, 0x28, 0x00, 0x00, 0x00, 0x50, 0xfd, 0xff, 0xff, 0x1b, 0x00, 0x00, 0x00, 0x73, 0x65, 0x71, 0x75, 0x65, 0x6e, 0x74, 0x69, 0x61, 0x6c, 0x5f, 0x31, 0x2f, 0x64, 0x65, 0x6e, 0x73, 0x65, 0x5f, 0x37, 0x2f, 0x4d, 0x61, 0x74, 0x4d, 0x75, 0x6c, 0x00, 0x02, 0x00, 0x00, 0x00, 0x01, 0x00, 0x00, 0x00, 0x05, 0x00, 0x00, 0x00, 0x2a, 0xfe, 0xff, 0xff, 0x00, 0x00, 0x00, 0x01, 0x10, 0x00, 0x00, 0x00, 0x10, 0x00, 0x00, 0x00, 0x08, 0x00, 0x00, 0x00, 0x28, 0x00, 0x00, 0x00, 0x98, 0xfd, 0xff, 0xff, 0x1b, 0x00, 0x00, 0x00, 0x73, 0x65, 0x71, 0x75, 0x65, 0x6e, 0x74, 0x69, 0x61, 0x6c, 0x5f, 0x31, 0x2f, 0x64, 0x65, 0x6e, 0x73, 0x65, 0x5f, 0x36, 0x2f, 0x4d, 0x61, 0x74, 0x4d, 0x75, 0x6c, 0x00, 0x02, 0x00, 0x00, 0x00, 0x05, 0x00, 0x00, 0x00, 0x0a, 0x00, 0x00, 0x00, 0x72, 0xfe, 0xff, 0xff, 0x00, 0x00, 0x00, 0x01, 0x10, 0x00, 0x00, 0x00, 0x10, 0x00, 0x00, 0x00, 0x07, 0x00, 0x00, 0x00, 0x28, 0x00, 0x00, 0x00, 0xe0, 0xfd, 0xff, 0xff, 0x1b, 0x00, 0x00, 0x00, 0x73, 0x65, 0x71, 0x75, 0x65, 0x6e, 0x74, 0x69, 0x61, 0x6c, 0x5f, 0x31, 0x2f, 0x64, 0x65, 0x6e, 0x73, 0x65, 0x5f, 0x35, 0x2f, 0x4d, 0x61, 0x74, 0x4d, 0x75, 0x6c, 0x00, 0x02, 0x00, 0x00, 0x00, 0x0a, 0x00, 0x00, 0x00, 0x0f, 0x00, 0x00, 0x00, 0xba, 0xfe, 0xff, 0xff, 0x00, 0x00, 0x00, 0x01, 0x10, 0x00, 0x00, 0x00, 0x10, 0x00, 0x00, 0x00, 0x06, 0x00, 0x00, 0x00, 0x28, 0x00, 0x00, 0x00, 0x28, 0xfe, 0xff, 0xff, 0x1b, 0x00, 0x00, 0x00, 0x73, 0x65, 0x71, 0x75, 0x65, 0x6e, 0x74, 0x69, 0x61, 0x6c, 0x5f, 0x31, 0x2f, 0x64, 0x65, 0x6e, 0x73, 0x65, 0x5f, 0x34, 0x2f, 0x4d, 0x61, 0x74, 0x4d, 0x75, 0x6c, 0x00, 0x02, 0x00, 0x00, 0x00, 0x0f, 0x00, 0x00, 0x00, 0xbb, 0x00, 0x00, 0x00, 0x02, 0xff, 0xff, 0xff, 0x00, 0x00, 0x00, 0x01, 0x10, 0x00, 0x00, 0x00, 0x10, 0x00, 0x00, 0x00, 0x05, 0x00, 0x00, 0x00, 0x38, 0x00, 0x00, 0x00, 0x70, 0xfe, 0xff, 0xff, 0x2b, 0x00, 0x00, 0x00, 0x73, 0x65, 0x71, 0x75, 0x65, 0x6e, 0x74, 0x69, 0x61, 0x6c, 0x5f, 0x31, 0x2f, 0x64, 0x65, 0x6e, 0x73, 0x65, 0x5f, 0x34, 0x2f, 0x42, 0x69, 0x61, 0x73, 0x41, 0x64, 0x64, 0x2f, 0x52, 0x65, 0x61, 0x64, 0x56, 0x61, 0x72, 0x69, 0x61, 0x62, 0x6c, 0x65, 0x4f, 0x70, 0x00, 0x01, 0x00, 0x00, 0x00, 0x0f, 0x00, 0x00, 0x00, 0x56, 0xff, 0xff, 0xff, 0x00, 0x00, 0x00, 0x01, 0x10, 0x00, 0x00, 0x00, 0x10, 0x00, 0x00, 0x00, 0x04, 0x00, 0x00, 0x00, 0x38, 0x00, 0x00, 0x00, 0xc4, 0xfe, 0xff, 0xff, 0x2b, 0x00, 0x00, 0x00, 0x73, 0x65, 0x71, 0x75, 0x65, 0x6e, 0x74, 0x69, 0x61, 0x6c, 0x5f, 0x31, 0x2f, 0x64, 0x65, 0x6e, 0x73, 0x65, 0x5f, 0x35, 0x2f, 0x42, 0x69, 0x61, 0x73, 0x41, 0x64, 0x64, 0x2f, 0x52, 0x65, 0x61, 0x64, 0x56, 0x61, 0x72, 0x69, 0x61, 0x62, 0x6c, 0x65, 0x4f, 0x70, 0x00, 0x01, 0x00, 0x00, 0x00, 0x0a, 0x00, 0x00, 0x00, 0xaa, 0xff, 0xff, 0xff, 0x00, 0x00, 0x00, 0x01, 0x10, 0x00, 0x00, 0x00, 0x10, 0x00, 0x00, 0x00, 0x03, 0x00, 0x00, 0x00, 0x38, 0x00, 0x00, 0x00, 0x18, 0xff, 0xff, 0xff, 0x2b, 0x00, 0x00, 0x00, 0x73, 0x65, 0x71, 0x75, 0x65, 0x6e, 0x74, 0x69, 0x61, 0x6c, 0x5f, 0x31, 0x2f, 0x64, 0x65, 0x6e, 0x73, 0x65, 0x5f, 0x36, 0x2f, 0x42, 0x69, 0x61, 0x73, 0x41, 0x64, 0x64, 0x2f, 0x52, 0x65, 0x61, 0x64, 0x56, 0x61, 0x72, 0x69, 0x61, 0x62, 0x6c, 0x65, 0x4f, 0x70, 0x00, 0x01, 0x00, 0x00, 0x00, 0x05, 0x00, 0x00, 0x00, 0x00, 0x00, 0x16, 0x00, 0x18, 0x00, 0x14, 0x00, 0x00, 0x00, 0x10, 0x00, 0x0c, 0x00, 0x08, 0x00, 0x00, 0x00, 0x00, 0x00, 0x00, 0x00, 0x07, 0x00, 0x16, 0x00, 0x00, 0x00, 0x00, 0x00, 0x00, 0x01, 0x10, 0x00, 0x00, 0x00, 0x10, 0x00, 0x00, 0x00, 0x02, 0x00, 0x00, 0x00, 0x38, 0x00, 0x00, 0x00, 0x84, 0xff, 0xff, 0xff, 0x2b, 0x00, 0x00, 0x00, 0x73, 0x65, 0x71, 0x75, 0x65, 0x6e, 0x74, 0x69, 0x61, 0x6c, 0x5f, 0x31, 0x2f, 0x64, 0x65, 0x6e, 0x73, 0x65, 0x5f, 0x37, 0x2f, 0x42, 0x69, 0x61, 0x73, 0x41, 0x64, 0x64, 0x2f, 0x52, 0x65, 0x61, 0x64, 0x56, 0x61, 0x72, 0x69, 0x61, 0x62, 0x6c, 0x65, 0x4f, 0x70, 0x00, 0x01, 0x00, 0x00, 0x00, 0x01, 0x00, 0x00, 0x00, 0x00, 0x00, 0x16, 0x00, 0x1c, 0x00, 0x18, 0x00, 0x00, 0x00, 0x14, 0x00, 0x10, 0x00, 0x0c, 0x00, 0x00, 0x00, 0x00, 0x00, 0x08, 0x00, 0x07, 0x00, 0x16, 0x00, 0x00, 0x00, 0x00, 0x00, 0x00, 0x01, 0x14, 0x00, 0x00, 0x00, 0x20, 0x00, 0x00, 0x00, 0x20, 0x00, 0x00, 0x00, 0x01, 0x00, 0x00, 0x00, 0x3c, 0x00, 0x00, 0x00, 0x02, 0x00, 0x00, 0x00, 0xff, 0xff, 0xff, 0xff, 0xbb, 0x00, 0x00, 0x00, 0x04, 0x00, 0x04, 0x00, 0x04, 0x00, 0x00, 0x00, 0x1f, 0x00, 0x00, 0x00, 0x73, 0x65, 0x72, 0x76, 0x69, 0x6e, 0x67, 0x5f, 0x64, 0x65, 0x66, 0x61, 0x75, 0x6c, 0x74, 0x5f, 0x64, 0x65, 0x6e, 0x73, 0x65, 0x5f, 0x34, 0x5f, 0x69, 0x6e, 0x70, 0x75, 0x74, 0x3a, 0x30, 0x00, 0x02, 0x00, 0x00, 0x00, 0x01, 0x00, 0x00, 0x00, 0xbb, 0x00, 0x00, 0x00, 0x02, 0x00, 0x00, 0x00, 0x20, 0x00, 0x00, 0x00, 0x04, 0x00, 0x00, 0x00, 0xf4, 0xff, 0xff, 0xff, 0x0e, 0x00, 0x00, 0x00, 0x00, 0x00, 0x00, 0x0e, 0x0c, 0x00, 0x0c, 0x00, 0x0b, 0x00, 0x00, 0x00, 0x00, 0x00, 0x04, 0x00, 0x0c, 0x00, 0x00, 0x00, 0x09, 0x00, 0x00, 0x00, 0x00, 0x00, 0x00, 0x09};
const int ecg_model_len = 14664;